{
  "version": "1.0",
  "truncation": null,
  "padding": null,
  "added_tokens": [
    {
      "id": 0,
      "content": "[UNK]",
      "single_word": false,
      "lstrip": false,
      "rstrip": false,
      "normalized": false,
      "special": true
    },
    {
      "id": 1,
      "content": "[CLS]",
      "single_word": false,
      "lstrip": false,
      "rstrip": false,
      "normalized": false,
      "special": true
    },
    {
      "id": 2,
      "content": "[SEP]",
      "single_word": false,
      "lstrip": false,
      "rstrip": false,
      "normalized": false,
      "special": true
    },
    {
      "id": 3,
      "content": "[PAD]",
      "single_word": false,
      "lstrip": false,
      "rstrip": false,
      "normalized": false,
      "special": true
    },
    {
      "id": 4,
      "content": "[MASK]",
      "single_word": false,
      "lstrip": false,
      "rstrip": false,
      "normalized": false,
      "special": true
    }
  ],
  "normalizer": null,
  "pre_tokenizer": {
    "type": "ByteLevel",
    "add_prefix_space": true,
    "trim_offsets": true,
    "use_regex": true
  },
  "post_processor": {
    "type": "ByteLevel",
    "add_prefix_space": true,
    "trim_offsets": true,
    "use_regex": true
  },
  "decoder": null,
  "model": {
    "type": "BPE",
    "dropout": null,
    "unk_token": null,
    "continuing_subword_prefix": null,
    "end_of_word_suffix": null,
    "fuse_unk": false,
    "byte_fallback": false,
    "vocab": {
      "[UNK]": 0,
      "[CLS]": 1,
      "[SEP]": 2,
      "[PAD]": 3,
      "[MASK]": 4,
      "!": 5,
      "#": 6,
      "%": 7,
      "&": 8,
      "(": 9,
      ")": 10,
      ",": 11,
      "-": 12,
      ".": 13,
      "/": 14,
      "0": 15,
      "1": 16,
      "2": 17,
      "3": 18,
      "4": 19,
      "5": 20,
      "6": 21,
      "7": 22,
      "8": 23,
      "9": 24,
      ":": 25,
      "?": 26,
      "@": 27,
      "A": 28,
      "B": 29,
      "C": 30,
      "D": 31,
      "E": 32,
      "F": 33,
      "G": 34,
      "H": 35,
      "I": 36,
      "J": 37,
      "K": 38,
      "L": 39,
      "M": 40,
      "N": 41,
      "O": 42,
      "P": 43,
      "Q": 44,
      "R": 45,
      "S": 46,
      "T": 47,
      "U": 48,
      "V": 49,
      "W": 50,
      "X": 51,
      "Y": 52,
      "Z": 53,
      "[": 54,
      "]": 55,
      "`": 56,
      "a": 57,
      "b": 58,
      "c": 59,
      "d": 60,
      "e": 61,
      "f": 62,
      "g": 63,
      "h": 64,
      "i": 65,
      "j": 66,
      "k": 67,
      "l": 68,
      "m": 69,
      "n": 70,
      "o": 71,
      "p": 72,
      "q": 73,
      "r": 74,
      "s": 75,
      "t": 76,
      "u": 77,
      "v": 78,
      "w": 79,
      "x": 80,
      "y": 81,
      "z": 82,
      "~": 83,
      "¦": 84,
      "»": 85,
      "¿": 86,
      "Â": 87,
      "â": 88,
      "ï": 89,
      "Ċ": 90,
      "Ġ": 91,
      "Ģ": 92,
      "ĵ": 93,
      "ĺ": 94,
      "Ļ": 95,
      "ľ": 96,
      "Ŀ": 97,
      "ł": 98,
      "--": 99,
      "an": 100,
      "----": 101,
      "er": 102,
      "Ġk": 103,
      "la": 104,
      "ta": 105,
      "in": 106,
      "--------": 107,
      "ang": 108,
      "en": 109,
      "Ġm": 110,
      "Ġs": 111,
      "Ġd": 112,
      "Ġb": 113,
      "ku": 114,
      "ar": 115,
      "ah": 116,
      "ti": 117,
      "Ġp": 118,
      "ya": 119,
      "mu": 120,
      "kan": 121,
      "Ġh": 122,
      "ĠK": 123,
      "as": 124,
      "----------------": 125,
      "Ġt": 126,
      "ad": 127,
      "un": 128,
      "au": 129,
      "ak": 130,
      "Ġdi": 131,
      "ĠT": 132,
      "Ġse": 133,
      "ĠA": 134,
      "ĠS": 135,
      "at": 136,
      "Ġa": 137,
      "yang": 138,
      "Ġber": 139,
      "ĠM": 140,
      "am": 141,
      "eng": 142,
      "Ġku": 143,
      "lah": 144,
      "em": 145,
      "ĠB": 146,
      "al": 147,
      "ĠD": 148,
      "uk": 149,
      "Ġc": 150,
      "inta": 151,
      "ala": 152,
      "Ġyang": 153,
      "Ġj": 154,
      "ap": 155,
      "ir": 156,
      "Ġta": 157,
      "ada": 158,
      "Ġter": 159,
      "ati": 160,
      "ih": 161,
      "lu": 162,
      "Ġr": 163,
      "Ġkau": 164,
      "gi": 165,
      "Ġmen": 166,
      "is": 167,
      "Ġke": 168,
      "ĠĊ": 169,
      "Ġla": 170,
      "ĠH": 171,
      "Ġaku": 172,
      "--------------------------------": 173,
      "du": 174,
      "anya": 175,
      "ga": 176,
      "ing": 177,
      "ita": 178,
      "ari": 179,
      "gu": 180,
      "ini": 181,
      "Ġcinta": 182,
      "ĠSe": 183,
      "..": 184,
      "ung": 185,
      "pa": 186,
      "Ġper": 187,
      "Ġtak": 188,
      "ik": 189,
      "tu": 190,
      "Ġhati": 191,
      "asih": 192,
      "asa": 193,
      "ri": 194,
      "Ġn": 195,
      "ĠP": 196,
      "alam": 197,
      "ĠL": 198,
      "aj": 199,
      "ata": 200,
      "emb": 201,
      "angan": 202,
      "im": 203,
      "ĠJ": 204,
      "nya": 205,
      "ama": 206,
      "us": 207,
      "ĠKu": 208,
      "Ġo": 209,
      "ĠR": 210,
      "el": 211,
      "Ġkita": 212,
      "da": 213,
      "ur": 214,
      "adi": 215,
      "wa": 216,
      "Ġ(": 217,
      "ĠC": 218,
      "pi": 219,
      "Ġmeng": 220,
      "ana": 221,
      "ayang": 222,
      "il": 223,
      "Ġini": 224,
      "Ġl": 225,
      "Ġ-": 226,
      "Ġ--------------------------------": 227,
      "------------------": 228,
      "Ġ--------------------------------------------------": 229,
      "Ġti": 230,
      "ia": 231,
      "Ġdan": 232,
      "uh": 233,
      "ĠI": 234,
      "Ġdiri": 235,
      "ĠAku": 236,
      "Ġbers": 237,
      "tuk": 238,
      "on": 239,
      "aya": 240,
      "ĠKau": 241,
      "amu": 242,
      "ĠY": 243,
      "ĠBer": 244,
      "ĠDi": 245,
      "Ġw": 246,
      "ĠTak": 247,
      "Ġoh": 248,
      "es": 249,
      "ĠBi": 250,
      "ba": 251,
      "kau": 252,
      "ĠLa": 253,
      "dah": 254,
      "ali": 255,
      "ĠO": 256,
      "ĠTer": 257,
      "um": 258,
      "ela": 259,
      "ĠN": 260,
      "ek": 261,
      "indu": 262,
      "uka": 263,
      "idu": 264,
      "Ġdalam": 265,
      "Ġg": 266,
      "it": 267,
      "ĠMen": 268,
      "bu": 269,
      "ara": 270,
      "anti": 271,
      "Ġbu": 272,
      "alau": 273,
      "Ġsayang": 274,
      "ĠLagu": 275,
      "idup": 276,
      "lam": 277,
      "ajuk": 278,
      "Ġlagi": 279,
      "atu": 280,
      "ĠTajuk": 281,
      "Ġbi": 282,
      "Ġpada": 283,
      "Ġte": 284,
      "ĠYang": 285,
      "ai": 286,
      "ĠW": 287,
      "Ġkasih": 288,
      "Ġsemu": 289,
      "Ġada": 290,
      "ĠCinta": 291,
      "Ġsen": 292,
      "aga": 293,
      "anj": 294,
      "Ġsu": 295,
      "ab": 296,
      "âĢ": 297,
      "ĠOh": 298,
      "oc": 299,
      "Ġun": 300,
      "uj": 301,
      "ĠU": 302,
      "Ġmer": 303,
      "dak": 304,
      "ĠTi": 305,
      "engan": 306,
      "na": 307,
      "ul": 308,
      "ra": 309,
      "iri": 310,
      "kah": 311,
      "Ġuntuk": 312,
      "gal": 313,
      "ĠAr": 314,
      "tis": 315,
      "Ġrasa": 316,
      "apa": 317,
      "kin": 318,
      "Ġpun": 319,
      "eh": 320,
      "Ġi": 321,
      "ĠMeng": 322,
      "lalu": 323,
      "sa": 324,
      "Ġbersama": 325,
      "Ġhatiku": 326,
      "impi": 327,
      "agi": 328,
      "Ġeng": 329,
      "ĠG": 330,
      "Ġengkau": 331,
      "Ġmemb": 332,
      "ulu": 333,
      "ma": 334,
      "iwa": 335,
      "erti": 336,
      "ikan": 337,
      "ĠArtis": 338,
      "ĠBiar": 339,
      "ĠDan": 340,
      "Ġrindu": 341,
      "Ġtah": 342,
      "ng": 343,
      "ĠE": 344,
      "Ġhidup": 345,
      "Ġsemua": 346,
      "Ġkan": 347,
      "Ġhanya": 348,
      "ut": 349,
      "aja": 350,
      "ungkin": 351,
      "âĢ¦": 352,
      "Ġhar": 353,
      "unggu": 354,
      "Ġpergi": 355,
      "Ġtiada": 356,
      "jadi": 357,
      "ilang": 358,
      "inya": 359,
      "amp": 360,
      "ock": 361,
      "ĠJangan": 362,
      "ĠKer": 363,
      "and": 364,
      "Ġdengan": 365,
      "Ġsem": 366,
      "Ġdari": 367,
      "Ġmu": 368,
      "or": 369,
      "eb": 370,
      "Ġmata": 371,
      "ahu": 372,
      "Ġmem": 373,
      "Ġker": 374,
      "ĠHanya": 375,
      "af": 376,
      "Ġin": 377,
      "auh": 378,
      "Ġtahu": 379,
      "nah": 380,
      "Ġpen": 381,
      "diri": 382,
      "yu": 383,
      "ep": 384,
      "Ġkata": 385,
      "hir": 386,
      "eri": 387,
      "Ġjiwa": 388,
      "embali": 389,
      "kanlah": 390,
      "ĠRock": 391,
      "ol": 392,
      "Ġmasih": 393,
      "isah": 394,
      "Ġbe": 395,
      "alan": 396,
      "inggal": 397,
      "anji": 398,
      "Ġsi": 399,
      "ĠAn": 400,
      "ĠPer": 401,
      "Ġdia": 402,
      "Ġkamu": 403,
      "aw": 404,
      "Ġjadi": 405,
      "Ġdiriku": 406,
      "pun": 407,
      "apan": 408,
      "Ġsatu": 409,
      "emu": 410,
      "asti": 411,
      "Ġapa": 412,
      "unia": 413,
      "api": 414,
      "Ġbah": 415,
      "anda": 416,
      "ĠUn": 417,
      "Ġitu": 418,
      "ong": 419,
      "Ġf": 420,
      "Ġken": 421,
      "Ġhari": 422,
      "ci": 423,
      "Ġpernah": 424,
      "ua": 425,
      "Ġsaja": 426,
      "anpa": 427,
      "ĠWalau": 428,
      "ĠUntuk": 429,
      "ĠBu": 430,
      "Ġakan": 431,
      "ĠTiada": 432,
      "Ġing": 433,
      "Ġdirimu": 434,
      "Ġmeny": 435,
      "gala": 436,
      "cinta": 437,
      "tang": 438,
      "san": 439,
      "Ġseti": 440,
      "Ġy": 441,
      "Ġmahu": 442,
      "ĠBila": 443,
      "ka": 444,
      "av": 445,
      "om": 446,
      "eta": 447,
      "Ġselalu": 448,
      "Ġlu": 449,
      "ed": 450,
      "Ġman": 451,
      "ima": 452,
      "aktu": 453,
      "Ġmengh": 454,
      "oh": 455,
      "bah": 456,
      "agia": 457,
      "ok": 458,
      "ĠTapi": 459,
      "Ġkembali": 460,
      "ampa": 461,
      "anku": 462,
      "Ġselam": 463,
      "Ġjangan": 464,
      "akhir": 465,
      "Ġkep": 466,
      "ingga": 467,
      "Ġmel": 468,
      "Ġdah": 469,
      "isi": 470,
      "awa": 471,
      "di": 472,
      "anta": 473,
      "Ġtidak": 474,
      "Ġmimpi": 475,
      "ĠKita": 476,
      "Ġsek": 477,
      "Ġjauh": 478,
      "akah": 479,
      "emp": 480,
      "Ġdunia": 481,
      "Ġsed": 482,
      "yum": 483,
      "amun": 484,
      "ĠApa": 485,
      "gar": 486,
      "Ġmalam": 487,
      "re": 488,
      "Ġsa": 489,
      "Ġnak": 490,
      "Ġser": 491,
      "ĠDalam": 492,
      "isa": 493,
      "Ġmana": 494,
      "Ġsang": 495,
      "yi": 496,
      "Ġkek": 497,
      "Ġtelah": 498,
      "bang": 499,
      "erita": 500,
      "Ġpadamu": 501,
      "adir": 502,
      "Ġbila": 503,
      "Ġcu": 504,
      "arah": 505,
      "akin": 506,
      "ĠSem": 507,
      "anmu": 508,
      "Ġterp": 509,
      "ĠNamun": 510,
      "Ġmungkin": 511,
      "Ġters": 512,
      "Ġingin": 513,
      "enang": 514,
      "ĠKe": 515,
      "Ġberj": 516,
      "eman": 517,
      "Ġnanti": 518,
      "Ġsendiri": 519,
      "ey": 520,
      "ĠHati": 521,
      "ĠIn": 522,
      "elah": 523,
      "ajah": 524,
      "ila": 525,
      "Ġdulu": 526,
      "Ġsegala": 527,
      "Ġkes": 528,
      "ĠF": 529,
      "tap": 530,
      "ac": 531,
      "angi": 532,
      "Ġmasa": 533,
      "Ġpasti": 534,
      "agai": 535,
      "rang": 536,
      "Ġsep": 537,
      "apat": 538,
      "ihat": 539,
      "Ġhilang": 540,
      "ĠKasih": 541,
      "ĠMungkin": 542,
      "engar": 543,
      "Ġbukan": 544,
      "Ġterus": 545,
      "Ġcintaku": 546,
      "ĠEng": 547,
      "Ġmenjadi": 548,
      "tah": 549,
      "ina": 550,
      "ĠEngkau": 551,
      "Ġtakkan": 552,
      "ungguh": 553,
      "li": 554,
      "Ġhav": 555,
      "Ġcintamu": 556,
      "Ġkini": 557,
      "ĠKini": 558,
      "Ġtetap": 559,
      "atan": 560,
      "Ġbahagia": 561,
      "atang": 562,
      "Ġberp": 563,
      "ami": 564,
      "Ġtanpa": 565,
      "ika": 566,
      "ĠAnda": 567,
      "Ġpu": 568,
      "abar": 569,
      "Ġwaktu": 570,
      "ulang": 571,
      "Ġindah": 572,
      "Ġtinggal": 573,
      "ĠHar": 574,
      "Ġsetia": 575,
      "ampai": 576,
      "unga": 577,
      "Ġdis": 578,
      "uhan": 579,
      "ĠKalau": 580,
      "Ġhatimu": 581,
      "ĠKerana": 582,
      "oo": 583,
      "os": 584,
      "angis": 585,
      "Ġlagu": 586,
      "Ġsudah": 587,
      "ĠGen": 588,
      "elu": 589,
      "Ġbiar": 590,
      "uga": 591,
      "ĠGenre": 592,
      "cari": 593,
      "ej": 594,
      "ian": 595,
      "pan": 596,
      "asi": 597,
      "ahaya": 598,
      "ei": 599,
      "yan": 600,
      "ĠSemu": 601,
      "Ġsepi": 602,
      "oleh": 603,
      "dam": 604,
      "Ġsama": 605,
      "Ġpeng": 606,
      "Ġbert": 607,
      "ampu": 608,
      "Ġbisa": 609,
      "ĠSu": 610,
      "ou": 611,
      "enar": 612,
      "Ġ/": 613,
      "ĠBukan": 614,
      "alu": 615,
      "Ġu": 616,
      "ĠSelam": 617,
      "intang": 618,
      "ĠSayang": 619,
      "Ġjanji": 620,
      "ĠPen": 621,
      "emi": 622,
      "ilik": 623,
      "ĠMengapa": 624,
      "Ġhidupku": 625,
      "Ġhuj": 626,
      "ĠSi": 627,
      "Ġterl": 628,
      "Ġperlu": 629,
      "Ġuntukmu": 630,
      "Ġterb": 631,
      "caya": 632,
      "entu": 633,
      "Ġsini": 634,
      "aku": 635,
      "ĠAs": 636,
      "Ġba": 637,
      "Ġkepada": 638,
      "si": 639,
      "Ġmampu": 640,
      "eka": 641,
      "Ġas": 642,
      "ĠAl": 643,
      "galanya": 644,
      "lan": 645,
      "Ġdapat": 646,
      "atuh": 647,
      "har": 648,
      "tak": 649,
      "apak": 650,
      "ikir": 651,
      "Ġselamanya": 652,
      "ĠKerna": 653,
      "man": 654,
      "oga": 655,
      "ĠMemb": 656,
      "ĠIng": 657,
      "Ġberd": 658,
      "ira": 659,
      "Ġmenanti": 660,
      "Ġbuat": 661,
      "angk": 662,
      "inar": 663,
      "Ġya": 664,
      "Ġmengerti": 665,
      "akan": 666,
      "Ġjalan": 667,
      "ĠBers": 668,
      "oi": 669,
      "ter": 670,
      "Ġlai": 671,
      "80": 672,
      "eti": 673,
      "Ġ80": 674,
      "angkah": 675,
      "Ġberk": 676,
      "Ġkeh": 677,
      "ĠKapak": 678,
      "ĠAda": 679,
      "Ġlama": 680,
      "Ġluka": 681,
      "aaf": 682,
      "kut": 683,
      "Ġair": 684,
      "ĠMer": 685,
      "Ġkekasih": 686,
      "az": 687,
      "ĠDengan": 688,
      "anc": 689,
      "ĠTuhan": 690,
      "ĠAgar": 691,
      "Ġmenj": 692,
      "epas": 693,
      "mata": 694,
      "ĠMasih": 695,
      "ĠSeti": 696,
      "ĠSen": 697,
      "Ġwajah": 698,
      "ĠTidak": 699,
      "Ġgi": 700,
      "Ġboleh": 701,
      "ĠAkan": 702,
      "ĠDari": 703,
      "Ġsy": 704,
      "Ġcuba": 705,
      "Ġseb": 706,
      "mb": 707,
      "bur": 708,
      "Ġdu": 709,
      "Ġlalu": 710,
      "dang": 711,
      "Ġgu": 712,
      "ubah": 713,
      "ĠDia": 714,
      "Ġkenangan": 715,
      "Ġsaat": 716,
      "ew": 717,
      "hari": 718,
      "ju": 719,
      "wak": 720,
      "Ġmilik": 721,
      "ĠHidup": 722,
      "usia": 723,
      "uan": 724,
      "ĠMem": 725,
      "but": 726,
      "Ġjua": 727,
      "Ġdatang": 728,
      "Ġmenya": 729,
      "gai": 730,
      "Ġakhir": 731,
      "ĠKata": 732,
      "Ġnya": 733,
      "agaikan": 734,
      "et": 735,
      "gini": 736,
      "urga": 737,
      "Ġsenyum": 738,
      "ĠSemua": 739,
      "ĠPada": 740,
      "Ġharapan": 741,
      "ĠAndai": 742,
      "Ġcahaya": 743,
      "engg": 744,
      "Ġterjadi": 745,
      "Ġharus": 746,
      "Ġduka": 747,
      "Ġorang": 748,
      "esah": 749,
      "Ġad": 750,
      "tau": 751,
      "Ġgila": 752,
      "Ġimpi": 753,
      "Ġtiba": 754,
      "ilah": 755,
      "ki": 756,
      "mat": 757,
      "aran": 758,
      "ĠAp": 759,
      "aling": 760,
      "Ġkec": 761,
      "andang": 762,
      "sah": 763,
      "aru": 764,
      "Ġjatuh": 765,
      "ĠHingga": 766,
      "usah": 767,
      "badi": 768,
      "ewa": 769,
      "Ġsuka": 770,
      "unyi": 771,
      "Ġberb": 772,
      "ĠHilang": 773,
      "iku": 774,
      "ĠKan": 775,
      "ĠSep": 776,
      "ĠDiri": 777,
      "ĠJika": 778,
      "ĠZ": 779,
      "ĠTakkan": 780,
      "ja": 781,
      "ĠSa": 782,
      "Ġberlalu": 783,
      "imu": 784,
      "ant": 785,
      "Ġmati": 786,
      "Ġbagai": 787,
      "Ġpi": 788,
      "amb": 789,
      "Ġjuga": 790,
      "Ġmend": 791,
      "ĠRindu": 792,
      "Ġpadaku": 793,
      "Ġinsan": 794,
      "Ġyou": 795,
      "mara": 796,
      "Ġsej": 797,
      "Ġterima": 798,
      "Ġmenunggu": 799,
      "daya": 800,
      "edih": 801,
      "antara": 802,
      "eah": 803,
      "op": 804,
      "pur": 805,
      "adis": 806,
      "ĠHari": 807,
      "han": 808,
      "Ġsisi": 809,
      "Ġlupa": 810,
      "oa": 811,
      "Ġpuj": 812,
      "Ġbegini": 813,
      "ub": 814,
      "wan": 815,
      "Ġsak": 816,
      "arna": 817,
      "ĠTanpa": 818,
      "Ġsegalanya": 819,
      "Ġberi": 820,
      "ebih": 821,
      "hati": 822,
      "Ġbintang": 823,
      "tan": 824,
      "Ġlah": 825,
      "Ġkerna": 826,
      "enti": 827,
      "Ġdip": 828,
      "dir": 829,
      "le": 830,
      "Ġsana": 831,
      "ĠKen": 832,
      "Ġses": 833,
      "Ġberg": 834,
      "sia": 835,
      "Ġderita": 836,
      "Ġbela": 837,
      "ĠAh": 838,
      "ĠItu": 839,
      "cap": 840,
      "ĠSatu": 841,
      "Ġberubah": 842,
      "ĠJadi": 843,
      "Ġsuci": 844,
      "Ġko": 845,
      "Ġhadir": 846,
      "ĠAm": 847,
      "Ġrela": 848,
      "ĠUsah": 849,
      "ĠIngin": 850,
      "Ġkh": 851,
      "Ġkali": 852,
      "Ġsampai": 853,
      "ahkan": 854,
      "Ġpe": 855,
      "Ġnama": 856,
      "Ġpunya": 857,
      "ĠWalaupun": 858,
      "Ġbunga": 859,
      "ĠKek": 860,
      "Ġterasa": 861,
      "gitu": 862,
      "Ġpercaya": 863,
      "Ġsemula": 864,
      "pta": 865,
      "indah": 866,
      "kur": 867,
      "arkan": 868,
      "Ġberdu": 869,
      "Ġru": 870,
      "iksa": 871,
      "Ġgel": 872,
      "epi": 873,
      "Ġpel": 874,
      "Ġdikau": 875,
      "ĠBagai": 876,
      "Ġterh": 877,
      "Ġbersamamu": 878,
      "iz": 879,
      "Ġkal": 880,
      "Ġabadi": 881,
      "Ġsetiap": 882,
      "Ġsyurga": 883,
      "iti": 884,
      "uma": 885,
      "acam": 886,
      "mad": 887,
      "Ġmela": 888,
      "Ġben": 889,
      "Ġtangan": 890,
      "ancur": 891,
      "ting": 892,
      "Ġbel": 893,
      "iru": 894,
      "gup": 895,
      "ĠSes": 896,
      "anjang": 897,
      "Ġmerasa": 898,
      "Ġhujung": 899,
      "yah": 900,
      "ena": 901,
      "unya": 902,
      "ĠMaaf": 903,
      "lum": 904,
      "Ġgun": 905,
      "inggalkan": 906,
      "Ġseperti": 907,
      "Ġhi": 908,
      "aksa": 909,
      "amba": 910,
      "ĠTerima": 911,
      "Ġtinggalkan": 912,
      "Ġra": 913,
      "ist": 914,
      "Ġperasa": 915,
      "Ġmerindu": 916,
      "Ġsiapa": 917,
      "osong": 918,
      "hey": 919,
      "Ġmes": 920,
      "Ġpas": 921,
      "ĠSek": 922,
      "ump": 923,
      "Ġbaru": 924,
      "âĢĻ": 925,
      "Ġasmara": 926,
      "ĠApakah": 927,
      "umi": 928,
      "Ġbelum": 929,
      "ĠMungkinkah": 930,
      "tara": 931,
      "Ġmak": 932,
      "Ġdengar": 933,
      "ĠDemi": 934,
      "Ġkel": 935,
      "impan": 936,
      "ĠSetiap": 937,
      "Ġimpian": 938,
      "lala": 939,
      "tar": 940,
      "angit": 941,
      "tih": 942,
      "Ġth": 943,
      "Ġmencari": 944,
      "ĠRasa": 945,
      "Ġbulan": 946,
      "ĠCintaku": 947,
      "Ġmanusia": 948,
      "yanyi": 949,
      "ĠMemang": 950,
      "ud": 951,
      "Ġpulang": 952,
      "ĠSampai": 953,
      "ĠSelamat": 954,
      "rad": 955,
      "ind": 956,
      "angg": 957,
      "Ġsinar": 958,
      "ĠMel": 959,
      "engk": 960,
      "Ġmengapa": 961,
      "Ġhanyalah": 962,
      "Ġpenuh": 963,
      "eribu": 964,
      "Ġkepadamu": 965,
      "ban": 966,
      "osa": 967,
      "Ġan": 968,
      "Ġmalu": 969,
      "ĠKembali": 970,
      "Ġcari": 971,
      "ĠHadir": 972,
      "Ġnaf": 973,
      "olong": 974,
      "alah": 975,
      "cara": 976,
      "tanya": 977,
      "Ġz": 978,
      "Ġei": 979,
      "tas": 980,
      "Ġbayang": 981,
      "Ġting": 982,
      "ungi": 983,
      "ĠMeny": 984,
      "orang": 985,
      "Ġjiwaku": 986,
      "ohon": 987,
      "rader": 988,
      "Ġantara": 989,
      "tari": 990,
      "endam": 991,
      "ahan": 992,
      "Ġtemp": 993,
      "Ġteman": 994,
      "adu": 995,
      "Ġmencinta": 996,
      "Ġni": 997,
      "ĠPasti": 998,
      "Ġfikir": 999,
      "bir": 1000,
      "Ġkisah": 1001,
      "Ġtapi": 1002,
      "Ġtakut": 1003,
      "Ġterk": 1004,
      "Ġmenc": 1005,
      "ona": 1006,
      "buah": 1007,
      "ĠBiarkan": 1008,
      "Ġpilu": 1009,
      "telah": 1010,
      "Ġme": 1011,
      "ĠKep": 1012,
      "ĠTeta": 1013,
      "Ġberm": 1014,
      "Ġberikan": 1015,
      "ĠMah": 1016,
      "ĠBe": 1017,
      "ĠDah": 1018,
      "Ġnan": 1019,
      "imp": 1020,
      "ekat": 1021,
      "awar": 1022,
      "Ġmanis": 1023,
      "ĠHarus": 1024,
      "ĠSaat": 1025,
      "Ġ2": 1026,
      "inan": 1027,
      "Ġbrader": 1028,
      "Ġpinta": 1029,
      "Ġdib": 1030,
      "ĠCan": 1031,
      "Ġwalau": 1032,
      "utan": 1033,
      "orban": 1034,
      "Ġwajahmu": 1035,
      "ĠSeperti": 1036,
      "Mu": 1037,
      "uku": 1038,
      "angat": 1039,
      "Ġbawa": 1040,
      "ĠKes": 1041,
      "adanya": 1042,
      "Ġsangka": 1043,
      "ĠBersama": 1044,
      "go": 1045,
      "ora": 1046,
      "utu": 1047,
      "entang": 1048,
      "Ġbumi": 1049,
      "ĠAz": 1050,
      "ĠMoga": 1051,
      "apkan": 1052,
      "ĠJiwa": 1053,
      "andai": 1054,
      "Ġsekali": 1055,
      "Ġbertemu": 1056,
      "jalan": 1057,
      "yo": 1058,
      "Ġawak": 1059,
      "Ġnasi": 1060,
      "ĠMenjadi": 1061,
      "Ġhujan": 1062,
      "Ġpuja": 1063,
      "lak": 1064,
      "tama": 1065,
      "tiasa": 1066,
      "Ġdik": 1067,
      "Ġmereka": 1068,
      "Ġmula": 1069,
      "Ġmemang": 1070,
      "awan": 1071,
      "Ġbiarkan": 1072,
      "Ġpelangi": 1073,
      "hh": 1074,
      "Ġsah": 1075,
      "Ġalam": 1076,
      "isu": 1077,
      "Ġsempur": 1078,
      "Ġkerana": 1079,
      "Ġsedar": 1080,
      "antung": 1081,
      "Ġsempurna": 1082,
      "Ġbang": 1083,
      "Ġbagaikan": 1084,
      "kanmu": 1085,
      "ĠDengar": 1086,
      "Ġlihat": 1087,
      "Ġbiasa": 1088,
      "Ġmenghar": 1089,
      "ĠIni": 1090,
      "Ġhavoc": 1091,
      "Ġberdua": 1092,
      "faz": 1093,
      "pu": 1094,
      "Ġga": 1095,
      "Ġmul": 1096,
      "yam": 1097,
      "ĠTelah": 1098,
      "ĠMan": 1099,
      "aman": 1100,
      "Ġresah": 1101,
      "ĠJanji": 1102,
      "ĠTers": 1103,
      "Ġmudah": 1104,
      "ĠAndainya": 1105,
      "duk": 1106,
      "gh": 1107,
      "to": 1108,
      "Ġerti": 1109,
      "Ġkat": 1110,
      "lasan": 1111,
      "Ġsungguh": 1112,
      "Ġbenar": 1113,
      "akar": 1114,
      "ĠSh": 1115,
      "ĠBis": 1116,
      "alang": 1117,
      "Ġri": 1118,
      "Ġrah": 1119,
      "dur": 1120,
      "ĠSej": 1121,
      "Ġlebih": 1122,
      "umpa": 1123,
      "ĠJanganlah": 1124,
      "ĠKenangan": 1125,
      "gang": 1126,
      "ahai": 1127,
      "Ġhingga": 1128,
      "aki": 1129,
      "ĠSungguh": 1130,
      "Ġatau": 1131,
      "Ġberdiri": 1132,
      "Ġmentari": 1133,
      "anyak": 1134,
      "gur": 1135,
      "ĠSetelah": 1136,
      "Ġwarna": 1137,
      "Ġberjanji": 1138,
      "uat": 1139,
      "upa": 1140,
      "enung": 1141,
      "aramu": 1142,
      "ahami": 1143,
      "Ġpagi": 1144,
      "Ġberla": 1145,
      "ĠBah": 1146,
      "Ġmenangis": 1147,
      "ĠHav": 1148,
      "ĠSela": 1149,
      "ĠTerp": 1150,
      "Ġyeah": 1151,
      "etik": 1152,
      "ĠSenyum": 1153,
      "Ġkecewa": 1154,
      "ĠHavoc": 1155,
      "hingga": 1156,
      "Ġmacam": 1157,
      "Ġbagi": 1158,
      "ĠMana": 1159,
      "Ġraya": 1160,
      "ĠSegala": 1161,
      "Ġpers": 1162,
      "Ġlangkah": 1163,
      "ĠSemakin": 1164,
      "ĠAllah": 1165,
      "Ġmesra": 1166,
      "wi": 1167,
      "za": 1168,
      "Ġia": 1169,
      "ĠKamu": 1170,
      "unj": 1171,
      "Ġterang": 1172,
      "Ġmenentu": 1173,
      "ĠBiarpun": 1174,
      "Ġsalah": 1175,
      "Ġterluka": 1176,
      "ow": 1177,
      "temu": 1178,
      "uu": 1179,
      "erah": 1180,
      "Ġlain": 1181,
      "Ġgadis": 1182,
      "Ġsanggup": 1183,
      "ĠKekasih": 1184,
      "kata": 1185,
      "yik": 1186,
      "Ġkem": 1187,
      "Ġkalau": 1188,
      "Ġkami": 1189,
      "Ġseng": 1190,
      "Ġbon": 1191,
      "ukti": 1192,
      "Ġmener": 1193,
      "ĠSedang": 1194,
      "Ġpermata": 1195,
      "Ġger": 1196,
      "ĠHatiku": 1197,
      "sara": 1198,
      "Ġbercinta": 1199,
      "ĠMari": 1200,
      "alik": 1201,
      "ĠDunia": 1202,
      "embira": 1203,
      "ĠJauh": 1204,
      "ĠMencari": 1205,
      "antik": 1206,
      "Ġmembawa": 1207,
      "ejar": 1208,
      "Ġnafas": 1209,
      "ha": 1210,
      "yikan": 1211,
      "Ġ&": 1212,
      "Ġdaku": 1213,
      "yata": 1214,
      "Ġtanya": 1215,
      "Ġtunggu": 1216,
      "Ġdir": 1217,
      "Ġcerita": 1218,
      "uru": 1219,
      "Ġlepas": 1220,
      "Ġkasihmu": 1221,
      "elum": 1222,
      "Ġbaik": 1223,
      "Ġkalbu": 1224,
      "ais": 1225,
      "uba": 1226,
      "ĠMalam": 1227,
      "lupa": 1228,
      "Ġre": 1229,
      "Ġlaku": 1230,
      "ingg": 1231,
      "Ġsentiasa": 1232,
      "Ġbegitu": 1233,
      "cipta": 1234,
      "Ġselama": 1235,
      "ĠAhmad": 1236,
      "hi": 1237,
      "intu": 1238,
      "entak": 1239,
      "Ġberc": 1240,
      "ikh": 1241,
      "ayat": 1242,
      "ĠTerb": 1243,
      "aby": 1244,
      "ĠHarapan": 1245,
      "rah": 1246,
      "erai": 1247,
      "ato": 1248,
      "ĠBagaikan": 1249,
      "ukir": 1250,
      "Ġlayu": 1251,
      "elap": 1252,
      "ĠWaktu": 1253,
      "ebas": 1254,
      "ĠPergi": 1255,
      "ĠPercaya": 1256,
      "Ġfe": 1257,
      "ĠBuat": 1258,
      "Ġyeh": 1259,
      "Ġkekal": 1260,
      "ĠSemoga": 1261,
      "angisan": 1262,
      "Ġmulia": 1263,
      "ayu": 1264,
      "Ġmemu": 1265,
      "Ġseribu": 1266,
      "Ġdep": 1267,
      "Ġal": 1268,
      "ĠMasa": 1269,
      "Ġjantung": 1270,
      "Ġterakhir": 1271,
      "duli": 1272,
      "Ġpertama": 1273,
      "Ġtakdir": 1274,
      "ikat": 1275,
      "ilih": 1276,
      "ĠEsa": 1277,
      "Ġmane": 1278,
      "Ġperasaan": 1279,
      "Ġanak": 1280,
      "aa": 1281,
      "oba": 1282,
      "pisah": 1283,
      "Ġmakin": 1284,
      "Ġdekat": 1285,
      "Ġdihati": 1286,
      "Ġselu": 1287,
      "ĠMes": 1288,
      "ĠYa": 1289,
      "Ġsayangku": 1290,
      "ĠSiapa": 1291,
      "dik": 1292,
      "tinya": 1293,
      "Ġ[": 1294,
      "inkan": 1295,
      "Ġda": 1296,
      "Ġbak": 1297,
      "ĠMahu": 1298,
      "emas": 1299,
      "Ġjaga": 1300,
      "Ġmenari": 1301,
      "ingan": 1302,
      "ĠSelalu": 1303,
      "ĠRam": 1304,
      "uhi": 1305,
      "Ġsenang": 1306,
      "uju": 1307,
      "Ġsemalam": 1308,
      "andainya": 1309,
      "Ġduit": 1310,
      "Ġakhirnya": 1311,
      "Ġnyawa": 1312,
      "Ġist": 1313,
      "era": 1314,
      "untu": 1315,
      "ĠAk": 1316,
      "Ġjom": 1317,
      "elma": 1318,
      "Ġlangit": 1319,
      "ulan": 1320,
      "Ġmatamu": 1321,
      "Ġdahulu": 1322,
      "antai": 1323,
      "Ġsering": 1324,
      "tera": 1325,
      "Ġpeduli": 1326,
      "ganti": 1327,
      "sta": 1328,
      "ani": 1329,
      "Ġkala": 1330,
      "las": 1331,
      "enyum": 1332,
      "Ġma": 1333,
      "Ġmus": 1334,
      "Ġmelu": 1335,
      "Ġhancur": 1336,
      "Ġhamba": 1337,
      "asanya": 1338,
      "Ġtuk": 1339,
      "Ġcuma": 1340,
      "itam": 1341,
      "tul": 1342,
      "ĠPulang": 1343,
      "ilek": 1344,
      "ĠTerus": 1345,
      "idupan": 1346,
      "ĠBiarlah": 1347,
      "andangan": 1348,
      "Ġsemakin": 1349,
      "Ġmataku": 1350,
      "Ġmelihat": 1351,
      "tahan": 1352,
      "Ġberpisah": 1353,
      "Ġtinggi": 1354,
      "henti": 1355,
      "Ġarah": 1356,
      "Ġdada": 1357,
      "Ġho": 1358,
      "akit": 1359,
      "ĠBeta": 1360,
      "ĠHanyalah": 1361,
      "Ġnyata": 1362,
      "ĠTetap": 1363,
      "ĠSelagi": 1364,
      "Ġfeat": 1365,
      "Ġang": 1366,
      "Ġtur": 1367,
      "Ġdiam": 1368,
      "Ġseorang": 1369,
      "Ġsebuah": 1370,
      "ĠSer": 1371,
      "Ġkej": 1372,
      "ĠSehingga": 1373,
      "amai": 1374,
      "ĠWajah": 1375,
      "Ġkasihku": 1376,
      "abis": 1377,
      "Ġdenganmu": 1378,
      "Ġsedih": 1379,
      "Ġberkata": 1380,
      "Ġairmata": 1381,
      "ĠKatakan": 1382,
      "ĠDiriku": 1383,
      "jalanan": 1384,
      "ruh": 1385,
      "Ġen": 1386,
      "antu": 1387,
      "annya": 1388,
      "Ġbanyak": 1389,
      "arang": 1390,
      "Ġpes": 1391,
      "Ġhad": 1392,
      "ĠKeh": 1393,
      "Ġterbang": 1394,
      "Ġlari": 1395,
      "ĠJais": 1396,
      "bagai": 1397,
      "ĠOrang": 1398,
      "Ġgembira": 1399,
      "Ġuntukku": 1400,
      "yukur": 1401,
      "Ġsiang": 1402,
      "Ġsejati": 1403,
      "Ġguna": 1404,
      "Ġsengsara": 1405,
      "rat": 1406,
      "yut": 1407,
      "ĠâĢ": 1408,
      "Ġmakan": 1409,
      "Ġsel": 1410,
      "ĠAtau": 1411,
      "ĠMu": 1412,
      "amkan": 1413,
      "alir": 1414,
      "ĠDik": 1415,
      "Ġtaman": 1416,
      "Ġlam": 1417,
      "Ġmemberi": 1418,
      "ulus": 1419,
      "Ġlaguku": 1420,
      "Ġsebenar": 1421,
      "ĠMaafkan": 1422,
      "Ġka": 1423,
      "Ġmy": 1424,
      "tika": 1425,
      "Ġhak": 1426,
      "adan": 1427,
      "adah": 1428,
      "Ġberakhir": 1429,
      "alkan": 1430,
      "ukar": 1431,
      "Ġcantik": 1432,
      "Ġlautan": 1433,
      "alaman": 1434,
      "ura": 1435,
      "estu": 1436,
      "elas": 1437,
      "Ġadalah": 1438,
      "abila": 1439,
      "Ġhidupmu": 1440,
      "Ġdarimu": 1441,
      "ĠSudah": 1442,
      "Ġnamamu": 1443,
      "Ġragu": 1444,
      "Ġkeliru": 1445,
      "ĠBetapa": 1446,
      "ca": 1447,
      "dar": 1448,
      "wal": 1449,
      "ers": 1450,
      "Ġmari": 1451,
      "Ġduga": 1452,
      "Ġbis": 1453,
      "tik": 1454,
      "Ġtolong": 1455,
      "atkan": 1456,
      "Ġam": 1457,
      "ĠMela": 1458,
      "Ġjika": 1459,
      "apakah": 1460,
      "Ġkelu": 1461,
      "ungan": 1462,
      "urn": 1463,
      "ĠBerk": 1464,
      "Ġbicara": 1465,
      "ĠCintamu": 1466,
      "Ġmerah": 1467,
      "Ġmembisu": 1468,
      "Ġharap": 1469,
      "andi": 1470,
      "Ġtersenyum": 1471,
      "ĠIndah": 1472,
      "Ġruang": 1473,
      "ĠMaha": 1474,
      "Ġdepan": 1475,
      "ay": 1476,
      "leh": 1477,
      "ot": 1478,
      "up": 1479,
      "ve": 1480,
      "inasi": 1481,
      "Ġsaling": 1482,
      "arn": 1483,
      "Ġtenang": 1484,
      "adang": 1485,
      "adar": 1486,
      "Ġdit": 1487,
      "ĠAf": 1488,
      "ĠAng": 1489,
      "Ġatas": 1490,
      "ĠBintang": 1491,
      "irama": 1492,
      "guh": 1493,
      "Ġna": 1494,
      "Ġbersatu": 1495,
      "Ġohh": 1496,
      "elaki": 1497,
      "anja": 1498,
      "Ġrasakan": 1499,
      "Ġmembara": 1500,
      "tahun": 1501,
      "yanyikan": 1502,
      "ĠSelamanya": 1503,
      "Ġkehidupan": 1504,
      "anggung": 1505,
      "Ġtempat": 1506,
      "ĠKepada": 1507,
      "Ġbonar": 1508,
      "pisahan": 1509,
      "bi": 1510,
      "de": 1511,
      "dad": 1512,
      "he": 1513,
      "uang": 1514,
      "Ġusah": 1515,
      "endak": 1516,
      "Ġmis": 1517,
      "Ġbina": 1518,
      "ahir": 1519,
      "ahit": 1520,
      "Ġpintu": 1521,
      "Ġtanda": 1522,
      "akap": 1523,
      "Ġkur": 1524,
      "ĠBayang": 1525,
      "Ġkeb": 1526,
      "embus": 1527,
      "Ġlena": 1528,
      "uhai": 1529,
      "Ġwo": 1530,
      "Ġsuara": 1531,
      "Ġibu": 1532,
      "ampak": 1533,
      "awapan": 1534,
      "cintaan": 1535,
      "ungguhnya": 1536,
      "angkit": 1537,
      "Ġsakit": 1538,
      "ĠHaruskah": 1539,
      "Ġangin": 1540,
      "ne": 1541,
      "od": 1542,
      "Ġah": 1543,
      "Ġsunyi": 1544,
      "Ġhey": 1545,
      "Ġhei": 1546,
      "ĠAdak": 1547,
      "Ġberma": 1548,
      "Ġterj": 1549,
      "Ġlara": 1550,
      "ĠHey": 1551,
      "ĠJalan": 1552,
      "Ġtidur": 1553,
      "ĠKaulah": 1554,
      "ĠNak": 1555,
      "Ġsemuanya": 1556,
      "ĠMenghar": 1557,
      "Ġputih": 1558,
      "ĠPenyanyi": 1559,
      "enggang": 1560,
      "Ġkhabar": 1561,
      "epian": 1562,
      "Ġsahaja": 1563,
      "unjuk": 1564,
      "cat": 1565,
      "eg": 1566,
      "Ġkon": 1567,
      "Ġdua": 1568,
      "tim": 1569,
      "Ġhayat": 1570,
      "Ġtel": 1571,
      "Ġapi": 1572,
      "ĠDatang": 1573,
      "isan": 1574,
      "duh": 1575,
      "ikmat": 1576,
      "ĠLala": 1577,
      "imana": 1578,
      "nyata": 1579,
      "usta": 1580,
      "Ġmengejar": 1581,
      "ĠBerikan": 1582,
      "ujur": 1583,
      "Ġdariku": 1584,
      "etak": 1585,
      "ĠEngkaulah": 1586,
      "ĠSayangku": 1587,
      "Ġberdoa": 1588,
      "ĠDirimu": 1589,
      "dadari": 1590,
      "ĠAdakah": 1591,
      "jak": 1592,
      "inari": 1593,
      "Ġsur": 1594,
      "Ġdar": 1595,
      "Ġdemi": 1596,
      "Ġbaby": 1597,
      "Ġhamp": 1598,
      "adam": 1599,
      "Ġdil": 1600,
      "ĠAwak": 1601,
      "ĠSur": 1602,
      "Ġterlupa": 1603,
      "tus": 1604,
      "ĠYou": 1605,
      "ekar": 1606,
      "Ġingat": 1607,
      "Ġmenjelma": 1608,
      "Ġnasib": 1609,
      "Ġrahsia": 1610,
      "be": 1611,
      "dengar": 1612,
      "llah": 1613,
      "Ġdosa": 1614,
      "Ġpedih": 1615,
      "Ġtan": 1616,
      "Ġdim": 1617,
      "ĠMas": 1618,
      "Ġjemu": 1619,
      "app": 1620,
      "gia": 1621,
      "Ġmendu": 1622,
      "Ġkeg": 1623,
      "Ġperpisahan": 1624,
      "ikit": 1625,
      "elam": 1626,
      "Ġbibir": 1627,
      "Ġsuatu": 1628,
      "Ġmembuat": 1629,
      "uluh": 1630,
      "Ġkena": 1631,
      "Ġmimpiku": 1632,
      "ligai": 1633,
      "Ġtanpamu": 1634,
      "Ġdisisi": 1635,
      "ewi": 1636,
      "Ġberganti": 1637,
      "Ġbangun": 1638,
      "Ġmelupa": 1639,
      "ST": 1640,
      "Ġar": 1641,
      "anas": 1642,
      "Ġkaki": 1643,
      "inda": 1644,
      "end": 1645,
      "Ġparan": 1646,
      "asah": 1647,
      "Ġtu": 1648,
      "Ġtua": 1649,
      "ĠSama": 1650,
      "Ġberdaya": 1651,
      "ema": 1652,
      "Ġci": 1653,
      "Ġrin": 1654,
      "embun": 1655,
      "ĠRah": 1656,
      "ĠRilek": 1657,
      "Ġlo": 1658,
      "Ġgo": 1659,
      "Ġbuta": 1660,
      "ĠTiap": 1661,
      "Ġmuda": 1662,
      "Ġpenting": 1663,
      "awah": 1664,
      "Ġmenghi": 1665,
      "Ġmelanda": 1666,
      "Ġsedang": 1667,
      "Ġterbayang": 1668,
      "etika": 1669,
      "Ġbeli": 1670,
      "ĠBiso": 1671,
      "uktikan": 1672,
      "OST": 1673,
      "ag": 1674,
      "ck": 1675,
      "mp": 1676,
      "Ġkaya": 1677,
      "tawa": 1678,
      "Ġsabar": 1679,
      "Ġsusah": 1680,
      "Ġbidu": 1681,
      "unduk": 1682,
      "ĠBunga": 1683,
      "Ġmeneman": 1684,
      "embut": 1685,
      "ĠCuba": 1686,
      "ĠMenanti": 1687,
      "ĠGel": 1688,
      "Ġkerja": 1689,
      "Ġluar": 1690,
      "Ġmanakah": 1691,
      "Ġserahkan": 1692,
      "ĠInilah": 1693,
      "Ġkesepian": 1694,
      "Ġsepanjang": 1695,
      "Ġgua": 1696,
      "yataan": 1697,
      "Ġistana": 1698,
      "ĠDikau": 1699,
      "hta": 1700,
      "olah": 1701,
      "anyut": 1702,
      "Ġpanjang": 1703,
      "Ġpandangan": 1704,
      "aka": 1705,
      "Ġayam": 1706,
      "ĠMus": 1707,
      "ĠDulu": 1708,
      "Ġcin": 1709,
      "ĠSeb": 1710,
      "ungk": 1711,
      "ĠPeng": 1712,
      "iman": 1713,
      "ĠResah": 1714,
      "Ġbersemi": 1715,
      "baik": 1716,
      "ĠNur": 1717,
      "Ġbidadari": 1718,
      "Ġtahun": 1719,
      "amping": 1720,
      "Ġmemandang": 1721,
      "omb": 1722,
      "enangkan": 1723,
      "Ġpula": 1724,
      "Ġbay": 1725,
      "Ġkepadaku": 1726,
      "ĠSetia": 1727,
      "Ġkhaya": 1728,
      "Ġlakukan": 1729,
      "buh": 1730,
      "ginasi": 1731,
      "Ġangk": 1732,
      "Ġdaya": 1733,
      "kup": 1734,
      "Ġhal": 1735,
      "Ġhoi": 1736,
      "Ġtulus": 1737,
      "ĠSy": 1738,
      "Ġayu": 1739,
      "Ġberta": 1740,
      "Ġberhenti": 1741,
      "Ġcer": 1742,
      "alas": 1743,
      "ĠSeandainya": 1744,
      "ĠPop": 1745,
      "atap": 1746,
      "ĠJam": 1747,
      "nyawa": 1748,
      "ĠGadis": 1749,
      "Ġtahan": 1750,
      "Ġpenawar": 1751,
      "ĠAntara": 1752,
      "burkan": 1753,
      "Ġgur": 1754,
      "enggam": 1755,
      "Ġpasar": 1756,
      "umpah": 1757,
      "Ġzai": 1758,
      "ĠMeski": 1759,
      "buk": 1760,
      "ob": 1761,
      "endiri": 1762,
      "Ġsaya": 1763,
      "ahw": 1764,
      "asrat": 1765,
      "Ġtuhan": 1766,
      "unan": 1767,
      "Ġawan": 1768,
      "ĠMali": 1769,
      "engok": 1770,
      "apus": 1771,
      "gil": 1772,
      "ĠPabila": 1773,
      "atah": 1774,
      "ilangan": 1775,
      "Ġwoo": 1776,
      "ĠTerasa": 1777,
      "umah": 1778,
      "Ġtemu": 1779,
      "ĠEn": 1780,
      "Ġmatahari": 1781,
      "Ġseketika": 1782,
      "Ġsyah": 1783,
      "Ġberbe": 1784,
      "ambil": 1785,
      "ĠUsahlah": 1786,
      "Ġbenci": 1787,
      "ĠHadirlah": 1788,
      "ĠPercayalah": 1789,
      "Ġseluruh": 1790,
      "ĠâĢĺ": 1791,
      "!!": 1792,
      "ch": 1793,
      "idah": 1794,
      "enuh": 1795,
      "entara": 1796,
      "Ġsimpan": 1797,
      "Ġsukar": 1798,
      "Ġdarah": 1799,
      "Ġdusta": 1800,
      "Ġput": 1801,
      "Ġpandang": 1802,
      "Ġhabis": 1803,
      "aut": 1804,
      "ĠTolong": 1805,
      "Ġseh": 1806,
      "Ġsela": 1807,
      "ĠSang": 1808,
      "atku": 1809,
      "Ġagar": 1810,
      "amanya": 1811,
      "ĠBuka": 1812,
      "ĠBawa": 1813,
      "Ġjawapan": 1814,
      "irkan": 1815,
      "Ġpercintaan": 1816,
      "ĠLupa": 1817,
      "ĠTerbang": 1818,
      "ĠNya": 1819,
      "eksa": 1820,
      "Ġgelap": 1821,
      "Ġbersamaku": 1822,
      "Ġkatakan": 1823,
      "Ġsitu": 1824,
      "Ġfahami": 1825,
      "Ġcukup": 1826,
      "Ġtersiksa": 1827,
      "ĠKasihku": 1828,
      "ĠIngat": 1829,
      "Ġkecil": 1830,
      "Ġgelisah": 1831,
      "ĠSesungguhnya": 1832,
      "Ġthe": 1833,
      "ĠBegitu": 1834,
      "ĠSedangkan": 1835,
      "Ġbermain": 1836,
      "!)": 1837,
      "dung": 1838,
      "janji": 1839,
      "Ġis": 1840,
      "Ġes": 1841,
      "Ġkawan": 1842,
      "Ġmah": 1843,
      "Ġbim": 1844,
      "Ġbiru": 1845,
      "Ġpela": 1846,
      "yak": 1847,
      "Ġhampa": 1848,
      "ĠKem": 1849,
      "ĠThe": 1850,
      "ĠMimpi": 1851,
      "ambut": 1852,
      "adai": 1853,
      "Ġraga": 1854,
      "Ġnyanyikan": 1855,
      "ĠLihat": 1856,
      "ĠIk": 1857,
      "Ġbersua": 1858,
      "ĠTerk": 1859,
      "Ġteguh": 1860,
      "ĠWahai": 1861,
      "Ġmenghilang": 1862,
      "Ġmelangkah": 1863,
      "Ġterpisah": 1864,
      "ĠFi": 1865,
      "Ġsepenuh": 1866,
      "Ġkehadir": 1867,
      "Ġkekasihku": 1868,
      "ĠPadamu": 1869,
      "ganggu": 1870,
      "Ġcipta": 1871,
      "ho": 1872,
      "hah": 1873,
      "ji": 1874,
      "uta": 1875,
      "Ġkian": 1876,
      "Ġmohon": 1877,
      "Ġdoa": 1878,
      "Ġbo": 1879,
      "Ġpelu": 1880,
      "Ġpadanya": 1881,
      "Ġpilih": 1882,
      "mula": 1883,
      "Ġhe": 1884,
      "Ġhoo": 1885,
      "Ġtentang": 1886,
      "Ġdibu": 1887,
      "ĠTinggalkan": 1888,
      "Ġseg": 1889,
      "iran": 1890,
      "Ġterindah": 1891,
      "Ġked": 1892,
      "ĠHuj": 1893,
      "Ġperjalanan": 1894,
      "ria": 1895,
      "ĠPas": 1896,
      "aju": 1897,
      "eleh": 1898,
      "Ġmengalir": 1899,
      "ĠBerg": 1900,
      "Ġwahai": 1901,
      "ĠNanti": 1902,
      "uja": 1903,
      "ĠMengh": 1904,
      "Ġrinduku": 1905,
      "ebat": 1906,
      "ĠPernah": 1907,
      "Ġjadikan": 1908,
      "Ġinginkan": 1909,
      "Ġucap": 1910,
      "ĠSelama": 1911,
      "Ġyale": 1912,
      "epaskan": 1913,
      "mbak": 1914,
      "Ġsenyuman": 1915,
      "ĠTanpamu": 1916,
      "Ġsesu": 1917,
      "ĠInginku": 1918,
      "goda": 1919,
      "Ġsyahdu": 1920,
      "dara": 1921,
      "ex": 1922,
      "edaya": 1923,
      "ly": 1924,
      "ry": 1925,
      "rama": 1926,
      "Ġmarah": 1927,
      "Ġsal": 1928,
      "Ġbuka": 1929,
      "Ġbuktikan": 1930,
      "kun": 1931,
      "adap": 1932,
      "una": 1933,
      "ĠTinggal": 1934,
      "ĠAd": 1935,
      "Ġayah": 1936,
      "Ġberada": 1937,
      "emah": 1938,
      "ĠBenar": 1939,
      "ĠBangkit": 1940,
      "iring": 1941,
      "Ġkaulah": 1942,
      "Ġketika": 1943,
      "ĠHi": 1944,
      "dul": 1945,
      "imah": 1946,
      "ĠIbu": 1947,
      "Ġwan": 1948,
      "ĠLagi": 1949,
      "aliti": 1950,
      "Ġbukanlah": 1951,
      "Ġmerayu": 1952,
      "ulur": 1953,
      "Ġbahgia": 1954,
      "Ġsangat": 1955,
      "Ġputus": 1956,
      "ĠSemuanya": 1957,
      "Ġpengh": 1958,
      "Ġpengganti": 1959,
      "Ġasyik": 1960,
      "juta": 1961,
      "Ġmiliki": 1962,
      "Ġadik": 1963,
      "Ġdiper": 1964,
      "Ġkota": 1965,
      "Ġmencintaimu": 1966,
      "fazkan": 1967,
      "ĠBahagia": 1968,
      "fat": 1969,
      "ucap": 1970,
      "Ġer": 1971,
      "Ġembun": 1972,
      "Ġmaaf": 1973,
      "Ġde": 1974,
      "Ġbes": 1975,
      "Ġpa": 1976,
      "Ġpaling": 1977,
      "Ġhina": 1978,
      "ĠTangisan": 1979,
      "ĠAwi": 1980,
      "ĠSeri": 1981,
      "Ġap": 1982,
      "Ġamb": 1983,
      "Ġalasan": 1984,
      "Ġberhar": 1985,
      "ĠMakin": 1986,
      "ĠBen": 1987,
      "ĠBulan": 1988,
      "ukah": 1989,
      "Ġno": 1990,
      "embunyi": 1991,
      "usnya": 1992,
      "ĠRentak": 1993,
      "ĠCuku": 1994,
      "ĠTerl": 1995,
      "induan": 1996,
      "ĠMenya": 1997,
      "ĠTiba": 1998,
      "saat": 1999,
      "Ġpeny": 2000,
      "Ġcuri": 2001,
      "ĠSemalam": 2002,
      "Ġberpaling": 2003,
      "takhta": 2004,
      "oid": 2005,
      "Ġmenjaga": 2006,
      "Ġmilikku": 2007,
      "Ġlupakan": 2008,
      "ĠItulah": 2009,
      "Ġrupa": 2010,
      "Ġbermimpi": 2011,
      "Ġsebenarnya": 2012,
      "Ġdugaan": 2013,
      "Ġkeluar": 2014,
      "appy": 2015,
      "Ġmelupakan": 2016,
      "ginasiku": 2017,
      "ĠSyurga": 2018,
      "ahwin": 2019,
      "Ġbimbang": 2020,
      "ĠCukup": 2021,
      "Nya": 2022,
      "cak": 2023,
      "mimpi": 2024,
      "pat": 2025,
      "su": 2026,
      "sama": 2027,
      "Ġirama": 2028,
      "Ġkosong": 2029,
      "angku": 2030,
      "endang": 2031,
      "Ġdendam": 2032,
      "Ġbing": 2033,
      "arat": 2034,
      "Ġhitam": 2035,
      "Ġtangis": 2036,
      "akal": 2037,
      "ĠAduh": 2038,
      "ĠSya": 2039,
      "Ġamat": 2040,
      "Ġbererti": 2041,
      "Ġbernyawa": 2042,
      "emadi": 2043,
      "ĠBagi": 2044,
      "Ġcita": 2045,
      "alamu": 2046,
      "iranya": 2047,
      "Ġtawa": 2048,
      "paya": 2049,
      "Ġnikmat": 2050,
      "embara": 2051,
      "ĠCahaya": 2052,
      "illah": 2053,
      "Ġtiap": 2054,
      "ĠBerd": 2055,
      "ĠMencinta": 2056,
      "aiz": 2057,
      "Ġsudi": 2058,
      "Ġkenyataan": 2059,
      "ĠUntukmu": 2060,
      "Ġmenyinta": 2061,
      "Ġmenyepi": 2062,
      "Ġsedari": 2063,
      "Ġsayu": 2064,
      "Ġterpedaya": 2065,
      "Ġberjumpa": 2066,
      "entuh": 2067,
      "Ġgelita": 2068,
      "umpama": 2069,
      "ĠKembalilah": 2070,
      "ĠAziz": 2071,
      "ĠDengarlah": 2072,
      "Ġmenentukan": 2073,
      "ikhlasan": 2074,
      "ĠLalalala": 2075,
      "Ġberbeza": 2076,
      "ce": 2077,
      "ec": 2078,
      "nock": 2079,
      "uri": 2080,
      "Âł": 2081,
      "ĠX": 2082,
      "Ġemas": 2083,
      "Ġdetik": 2084,
      "Ġpandai": 2085,
      "Ġpantai": 2086,
      "asar": 2087,
      "Ġdih": 2088,
      "ĠSakit": 2089,
      "Ġbern": 2090,
      "Ġbertakhta": 2091,
      "ĠMata": 2092,
      "ĠBebas": 2093,
      "ĠDapat": 2094,
      "Ġcur": 2095,
      "irik": 2096,
      "Ġrim": 2097,
      "ĠHoi": 2098,
      "ingin": 2099,
      "ingat": 2100,
      "ĠSepi": 2101,
      "ĠLebih": 2102,
      "ĠLangit": 2103,
      "ĠCuma": 2104,
      "Ġtiga": 2105,
      "ĠIm": 2106,
      "ĠIyo": 2107,
      "Ġikut": 2108,
      "salah": 2109,
      "Ġsemangat": 2110,
      "ebah": 2111,
      "Ġmeminta": 2112,
      "hiris": 2113,
      "hirnya": 2114,
      "empuan": 2115,
      "ĠFikir": 2116,
      "Ġbertanya": 2117,
      "ĠMaafkanlah": 2118,
      "Ġpujaan": 2119,
      "Ġmengharapkan": 2120,
      "Ġberlari": 2121,
      "Ġlepaskan": 2122,
      "ĠAkhirnya": 2123,
      "Ġnaik": 2124,
      "Ġmiss": 2125,
      "odoh": 2126,
      "ham": 2127,
      "lla": 2128,
      "mi": 2129,
      "sud": 2130,
      "salamu": 2131,
      "waktu": 2132,
      "Ġ1": 2133,
      "Ġeh": 2134,
      "Ġkorban": 2135,
      "ingi": 2136,
      "enya": 2137,
      "Ġhanyut": 2138,
      "ĠKh": 2139,
      "ĠKisah": 2140,
      "Ġtentu": 2141,
      "Ġtangisan": 2142,
      "uni": 2143,
      "ĠTeman": 2144,
      "ĠAir": 2145,
      "ĠSabar": 2146,
      "amar": 2147,
      "ĠBaru": 2148,
      "alaiku": 2149,
      "Ġjelas": 2150,
      "Ġril": 2151,
      "ĠPu": 2152,
      "ĠPon": 2153,
      "ĠLuka": 2154,
      "Ġoleh": 2155,
      "ĠRela": 2156,
      "urung": 2157,
      "Ġwarn": 2158,
      "elapan": 2159,
      "Ġgem": 2160,
      "itan": 2161,
      "ĠMenj": 2162,
      "Ġmerana": 2163,
      "Ġmembakar": 2164,
      "ĠBiarkanlah": 2165,
      "bahagia": 2166,
      "Ġterpaksa": 2167,
      "Ġterpadam": 2168,
      "Ġberjaya": 2169,
      "Ġberjuta": 2170,
      "Ġteruskan": 2171,
      "ĠHarum": 2172,
      "ĠSiang": 2173,
      "ĠAssalamu": 2174,
      "angkat": 2175,
      "Ġberbunga": 2176,
      "capai": 2177,
      "Ġterhadap": 2178,
      "ĠWajahmu": 2179,
      "ĠSuraya": 2180,
      "Ġesok": 2181,
      "alaikum": 2182,
      "Ġrilex": 2183,
      "ĠAssalamualaikum": 2184,
      "ef": 2185,
      "edu": 2186,
      "id": 2187,
      "iar": 2188,
      "jar": 2189,
      "ori": 2190,
      "wara": 2191,
      "enangan": 2192,
      "enda": 2193,
      "Ġdewi": 2194,
      "Ġbadan": 2195,
      "aris": 2196,
      "tip": 2197,
      "Ġpatah": 2198,
      "ĠKali": 2199,
      "Ġto": 2200,
      "autan": 2201,
      "ĠSeribu": 2202,
      "Ġkum": 2203,
      "ĠBlu": 2204,
      "ĠDuhai": 2205,
      "Ġcakap": 2206,
      "Ġjumpa": 2207,
      "Ġtert": 2208,
      "Ġtercipta": 2209,
      "lukan": 2210,
      "Ġkela": 2211,
      "ĠSehar": 2212,
      "ĠSebuah": 2213,
      "rit": 2214,
      "ĠRaya": 2215,
      "Ġmengg": 2216,
      "ĠBertemu": 2217,
      "ĠMener": 2218,
      "Ġtepi": 2219,
      "Ġkanda": 2220,
      "ebar": 2221,
      "Ġsilam": 2222,
      "Ġbahasa": 2223,
      "etar": 2224,
      "Ġmeluka": 2225,
      "Ġsekadar": 2226,
      "Ġyakin": 2227,
      "ĠSendiri": 2228,
      "Ġsakiti": 2229,
      "Ġterhenti": 2230,
      "Ġtanganmu": 2231,
      "Ġdengarlah": 2232,
      "Ġbayangan": 2233,
      "Ġfikiran": 2234,
      "ĠTetapi": 2235,
      "Ġbermak": 2236,
      "impati": 2237,
      "utus": 2238,
      "Ġmainan": 2239,
      "Ġpesan": 2240,
      "andiwara": 2241,
      "ĠLupakan": 2242,
      "ĠBlues": 2243,
      "hana": 2244,
      "jo": 2245,
      "Ġisi": 2246,
      "ere": 2247,
      "entar": 2248,
      "Ġmuka": 2249,
      "Ġmanja": 2250,
      "Ġbawah": 2251,
      "mur": 2252,
      "ĠKosong": 2253,
      "asad": 2254,
      "Ġtang": 2255,
      "ĠTuk": 2256,
      "ĠAis": 2257,
      "ĠSaya": 2258,
      "ĠSuka": 2259,
      "engah": 2260,
      "ĠBoleh": 2261,
      "Ġjer": 2262,
      "Ġtau": 2263,
      "Ġrock": 2264,
      "isik": 2265,
      "Ġkeikhlasan": 2266,
      "ĠHaz": 2267,
      "ikm": 2268,
      "ĠPel": 2269,
      "ĠLalu": 2270,
      "ĠLautan": 2271,
      "ĠJaga": 2272,
      "usik": 2273,
      "Ġlelaki": 2274,
      "Ġbersalah": 2275,
      "Ġbudi": 2276,
      "aikan": 2277,
      "Ġsentu": 2278,
      "ĠUh": 2279,
      "Ġsementara": 2280,
      "ĠAnak": 2281,
      "ĠUntukku": 2282,
      "awab": 2283,
      "empuhi": 2284,
      "abaran": 2285,
      "Ġterbina": 2286,
      "ĠAsyik": 2287,
      "Ġlalui": 2288,
      "Ġmilikmu": 2289,
      "Ġmenyayang": 2290,
      "Ġsenyummu": 2291,
      "ĠApo": 2292,
      "Ġpipi": 2293,
      "edihan": 2294,
      "Ġberibu": 2295,
      "ĠAmpun": 2296,
      "ĠManis": 2297,
      "Ġdirinya": 2298,
      "Ġrealiti": 2299,
      "ikhlas": 2300,
      "Ġturut": 2301,
      "Ġhadapan": 2302,
      "Ġhampir": 2303,
      "Ġparanoid": 2304,
      "ombor": 2305,
      "Ġtemui": 2306,
      "Ġbingung": 2307,
      "enyap": 2308,
      "egar": 2309,
      "mbah": 2310,
      "nia": 2311,
      "pada": 2312,
      "ru": 2313,
      "tangan": 2314,
      "ver": 2315,
      "Ġ3": 2316,
      "anyi": 2317,
      "inc": 2318,
      "Ġmas": 2319,
      "Ġmau": 2320,
      "Ġmew": 2321,
      "Ġmekar": 2322,
      "Ġso": 2323,
      "Ġsamping": 2324,
      "Ġdo": 2325,
      "Ġdes": 2326,
      "Ġpus": 2327,
      "Ġhai": 2328,
      "Ġhenti": 2329,
      "ĠKala": 2330,
      "undang": 2331,
      "unting": 2332,
      "ĠAmb": 2333,
      "ĠSal": 2334,
      "ĠSinar": 2335,
      "Ġberita": 2336,
      "ĠMar": 2337,
      "ĠBand": 2338,
      "alasan": 2339,
      "Ġtabah": 2340,
      "Ġterbaik": 2341,
      "Ġmenang": 2342,
      "Ġmeniti": 2343,
      "Ġket": 2344,
      "Ġlaut": 2345,
      "ĠHak": 2346,
      "dut": 2347,
      "Ġperma": 2348,
      "Ġnampak": 2349,
      "ĠPut": 2350,
      "Ġbersinar": 2351,
      "lamanya": 2352,
      "agaimana": 2353,
      "ĠEr": 2354,
      "Ġmemer": 2355,
      "Ġintan": 2356,
      "auhan": 2357,
      "Ġdahaga": 2358,
      "Ġmalamku": 2359,
      "Ġserta": 2360,
      "ilau": 2361,
      "Ġberpu": 2362,
      "ĠPenuh": 2363,
      "Ġterlena": 2364,
      "ĠMembawa": 2365,
      "ĠMembuat": 2366,
      "Ġgelora": 2367,
      "Ġrayu": 2368,
      "indungi": 2369,
      "engkam": 2370,
      "Ġriang": 2371,
      "Ġmenerima": 2372,
      "Ġturun": 2373,
      "ayung": 2374,
      "timewa": 2375,
      "Ġmenduga": 2376,
      "Ġkegelapan": 2377,
      "Ġkhayalan": 2378,
      "ĠEntah": 2379,
      "ĠBebaskan": 2380,
      "Ġbermakna": 2381,
      "Ku": 2382,
      "dc": 2383,
      "ip": 2384,
      "krit": 2385,
      "ling": 2386,
      "oe": 2387,
      "odi": 2388,
      "pdc": 2389,
      "ycat": 2390,
      "Ġand": 2391,
      "Ġbilang": 2392,
      "Ġhuu": 2393,
      "ĠKami": 2394,
      "ĠKadang": 2395,
      "askan": 2396,
      "asana": 2397,
      "adinya": 2398,
      "unc": 2399,
      "ĠTengok": 2400,
      "ĠMala": 2401,
      "Ġkurang": 2402,
      "Ġcom": 2403,
      "Ġcop": 2404,
      "intas": 2405,
      "apai": 2406,
      "Ġterdaya": 2407,
      "lusi": 2408,
      "Ġrasanya": 2409,
      "Ġrumah": 2410,
      "Ġmeninggalkan": 2411,
      "Ġmenahan": 2412,
      "Ġmenanggung": 2413,
      "Ġketawa": 2414,
      "dua": 2415,
      "ĠSed": 2416,
      "tulu": 2417,
      "ĠLangkat": 2418,
      "embang": 2419,
      "ĠJom": 2420,
      "Ġon": 2421,
      "ĠCh": 2422,
      "Ġmengen": 2423,
      "Ġluk": 2424,
      "Ġlemah": 2425,
      "uhanku": 2426,
      "ĠIz": 2427,
      "Ġbersabar": 2428,
      "eki": 2429,
      "ĠMeninggalkan": 2430,
      "Ġkerinduan": 2431,
      "olo": 2432,
      "edari": 2433,
      "Ġberjalan": 2434,
      "Ġbukannya": 2435,
      "Ġpudar": 2436,
      "aluri": 2437,
      "ĠAsalkan": 2438,
      "Ġbayu": 2439,
      "Ġduduk": 2440,
      "Ġaduh": 2441,
      "ubat": 2442,
      "lee": 2443,
      "Ġwalaupun": 2444,
      "Ġgaya": 2445,
      "Ġmenerangi": 2446,
      "Ġangkasa": 2447,
      "ĠXpdc": 2448,
      "Ġkandaq": 2449,
      "90": 2450,
      "bila": 2451,
      "jah": 2452,
      "lin": 2453,
      "oda": 2454,
      "Ġe": 2455,
      "Ġumpama": 2456,
      "Ġ90": 2457,
      "Ġkac": 2458,
      "lack": 2459,
      "Ġmasanya": 2460,
      "Ġdem": 2461,
      "Ġbatu": 2462,
      "aruh": 2463,
      "Ġpadi": 2464,
      "yakin": 2465,
      "mun": 2466,
      "Ġha": 2467,
      "Ġhasrat": 2468,
      "ĠKam": 2469,
      "ĠKiranya": 2470,
      "ĠAdik": 2471,
      "ĠMakan": 2472,
      "ĠMacam": 2473,
      "lahan": 2474,
      "Ġjamb": 2475,
      "luh": 2476,
      "Ġrenung": 2477,
      "isau": 2478,
      "ingk": 2479,
      "ĠSegalanya": 2480,
      "ĠSeakan": 2481,
      "tutu": 2482,
      "embah": 2483,
      "ĠJatuh": 2484,
      "usuk": 2485,
      "Ġombak": 2486,
      "ĠRaf": 2487,
      "ĠCaramu": 2488,
      "Ġlelah": 2489,
      "ĠIma": 2490,
      "Ġbersemadi": 2491,
      "onta": 2492,
      "ĠYeah": 2493,
      "ĠBerb": 2494,
      "ĠTakdir": 2495,
      "esal": 2496,
      "ĠTernyata": 2497,
      "Ġgenggam": 2498,
      "ĠMenangis": 2499,
      "Ġbuang": 2500,
      "ĠpadaMu": 2501,
      "Ġsudut": 2502,
      "aban": 2503,
      "abat": 2504,
      "ĠOhh": 2505,
      "uji": 2506,
      "ujung": 2507,
      "ĠMengapakah": 2508,
      "ĠGer": 2509,
      "ĠElla": 2510,
      "Ġharum": 2511,
      "anding": 2512,
      "Ġpencinta": 2513,
      "Ġbetul": 2514,
      "Ġmenyanyi": 2515,
      "Ġduniaku": 2516,
      "Ġsendirian": 2517,
      "oss": 2518,
      "Ġpengorban": 2519,
      "ĠBukannya": 2520,
      "ĠAsmara": 2521,
      "Ġbaek": 2522,
      "etia": 2523,
      "Ġgugur": 2524,
      "enggelam": 2525,
      "Ġmerasakan": 2526,
      "ĠTerimalah": 2527,
      "Ġperasaanku": 2528,
      "Ġmaksud": 2529,
      "Ġzaman": 2530,
      "Ġfikirkan": 2531,
      "ĠMahligai": 2532,
      "ĠSejak": 2533,
      "Ġbagimu": 2534,
      "temuan": 2535,
      "ĠMarilah": 2536,
      "Ġnafasku": 2537,
      "ĠTerbayang": 2538,
      "Ġentah": 2539,
      "urnama": 2540,
      "Ġrintangan": 2541,
      "ĠHujan": 2542,
      "ĠImpi": 2543,
      "ĠAishah": 2544,
      "Rap": 2545,
      "ber": 2546,
      "cuk": 2547,
      "cita": 2548,
      "fan": 2549,
      "min": 2550,
      "nih": 2551,
      "og": 2552,
      "sim": 2553,
      "ys": 2554,
      "Ġandai": 2555,
      "Ġakal": 2556,
      "Ġmadu": 2557,
      "Ġmawar": 2558,
      "Ġsimpati": 2559,
      "Ġbalik": 2560,
      "kuatan": 2561,
      "kubur": 2562,
      "Ġpar": 2563,
      "Ġpej": 2564,
      "Ġdid": 2565,
      "Ġdij": 2566,
      "amat": 2567,
      "enggu": 2568,
      "Ġkul": 2569,
      "emang": 2570,
      "ĠBa": 2571,
      "ĠBisa": 2572,
      "ĠBelum": 2573,
      "ĠDis": 2574,
      "ĠDato": 2575,
      "Ġju": 2576,
      "Ġrestu": 2577,
      "Ġkemu": 2578,
      "Ġlaju": 2579,
      "Ġakulah": 2580,
      "arilah": 2581,
      "Ġpertahan": 2582,
      "Ġng": 2583,
      "Ġnombor": 2584,
      "ĠPahit": 2585,
      "ĠLama": 2586,
      "imis": 2587,
      "elan": 2588,
      "ĠCoba": 2589,
      "ĠIs": 2590,
      "Ġberseri": 2591,
      "ĠBert": 2592,
      "bawa": 2593,
      "bul": 2594,
      "antian": 2595,
      "Ġbudak": 2596,
      "Ġsayangmu": 2597,
      "Ġsuria": 2598,
      "abi": 2599,
      "Ġpuncak": 2600,
      "Ġidam": 2601,
      "Ġengkaulah": 2602,
      "Ġharta": 2603,
      "Ġharga": 2604,
      "andingan": 2605,
      "Ġmemaksa": 2606,
      "ĠAnd": 2607,
      "Ġkenal": 2608,
      "Ġmenyiksa": 2609,
      "Ġyo": 2610,
      "empuh": 2611,
      "Ġberjauhan": 2612,
      "Ġkesemp": 2613,
      "Ġindahnya": 2614,
      "Ġup": 2615,
      "Ġjanjimu": 2616,
      "ĠAsal": 2617,
      "Ġbuatku": 2618,
      "ĠHidupku": 2619,
      "Ġmenyala": 2620,
      "ĠKatakanlah": 2621,
      "Ġsenyumanmu": 2622,
      "Ġmendung": 2623,
      "pura": 2624,
      "Ġsisiku": 2625,
      "ĠKekal": 2626,
      "indahan": 2627,
      "indung": 2628,
      "engketa": 2629,
      "ĠHadirmu": 2630,
      "Ġlamanya": 2631,
      "Ġhakikat": 2632,
      "Ġbisikan": 2633,
      "ĠAngin": 2634,
      "Ġhayatku": 2635,
      "Ġsuratan": 2636,
      "asahi": 2637,
      "Ġlove": 2638,
      "Ġkehadiranmu": 2639,
      "Ġsesuatu": 2640,
      "ĠAwie": 2641,
      "Ġberharga": 2642,
      "Ġcopycat": 2643,
      "ain": 2644,
      "do": 2645,
      "fah": 2646,
      "jau": 2647,
      "nn": 2648,
      "sikan": 2649,
      "th": 2650,
      "Ġem": 2651,
      "Ġusia": 2652,
      "Ġkun": 2653,
      "Ġkab": 2654,
      "tapa": 2655,
      "enci": 2656,
      "Ġsambut": 2657,
      "Ġbebas": 2658,
      "tihan": 2659,
      "Ġpam": 2660,
      "Ġpanas": 2661,
      "kannya": 2662,
      "ĠKo": 2663,
      "asan": 2664,
      "ĠTas": 2665,
      "ĠTuhanku": 2666,
      "Ġseindah": 2667,
      "atin": 2668,
      "Ġaman": 2669,
      "Ġberani": 2670,
      "Ġbermula": 2671,
      "ĠMati": 2672,
      "Ġkus": 2673,
      "ĠBlack": 2674,
      "ĠDoa": 2675,
      "Ġch": 2676,
      "Ġjang": 2677,
      "Ġterm": 2678,
      "Ġmeni": 2679,
      "Ġlalala": 2680,
      "ĠHas": 2681,
      "Ġnamun": 2682,
      "Ġneg": 2683,
      "emburu": 2684,
      "imb": 2685,
      "ĠCerita": 2686,
      "Ġlenggang": 2687,
      "ĠIa": 2688,
      "Ġbersedih": 2689,
      "ĠYe": 2690,
      "ĠYeh": 2691,
      "ĠOoo": 2692,
      "ĠMenunggu": 2693,
      "ĠMenahan": 2694,
      "Ġsendu": 2695,
      "Ġsenda": 2696,
      "ampung": 2697,
      "Ġmemahami": 2698,
      "afiz": 2699,
      "Ġkenang": 2700,
      "ĠBuang": 2701,
      "omp": 2702,
      "Ġluas": 2703,
      "Ġselamat": 2704,
      "diam": 2705,
      "Ġserah": 2706,
      "Ġberter": 2707,
      "ĠSuara": 2708,
      "Ġperlukan": 2709,
      "ĠMerindu": 2710,
      "Ġkekasihmu": 2711,
      "juangan": 2712,
      "ĠHilanglah": 2713,
      "ĠSalah": 2714,
      "ubungan": 2715,
      "Ġhadirmu": 2716,
      "isteri": 2717,
      "ĠMelihat": 2718,
      "Ġrahmat": 2719,
      "ĠKamulah": 2720,
      "ĠKekasihku": 2721,
      "Ġbercahaya": 2722,
      "Ġjantungku": 2723,
      "ĠMengharap": 2724,
      "Ġdarinya": 2725,
      "Ġputeri": 2726,
      "Ġdibuai": 2727,
      "Ġertinya": 2728,
      "Ġbesar": 2729,
      "Ġrimba": 2730,
      "ĠSeharusnya": 2731,
      "ĠHazama": 2732,
      "Ġmemerlukan": 2733,
      "Ġkesempatan": 2734,
      "cana": 2735,
      "fikir": 2736,
      "gah": 2737,
      "gak": 2738,
      "ginya": 2739,
      "ic": 2740,
      "lang": 2741,
      "wajah": 2742,
      "yet": 2743,
      "Ġat": 2744,
      "Ġangg": 2745,
      "Ġkar": 2746,
      "Ġkahwin": 2747,
      "lakan": 2748,
      "Ġmon": 2749,
      "Ġmaya": 2750,
      "Ġsumpah": 2751,
      "Ġsunting": 2752,
      "Ġden": 2753,
      "Ġdamba": 2754,
      "Ġbeb": 2755,
      "kuh": 2756,
      "aranya": 2757,
      "aham": 2758,
      "Ġpem": 2759,
      "Ġparah": 2760,
      "Ġhendak": 2761,
      "asang": 2762,
      "Ġtul": 2763,
      "Ġtunduk": 2764,
      "Ġseadanya": 2765,
      "ĠAb": 2766,
      "ĠAtas": 2767,
      "ĠSo": 2768,
      "ĠSalam": 2769,
      "Ġain": 2770,
      "Ġkuasa": 2771,
      "Ġjel": 2772,
      "irim": 2773,
      "Ġternyata": 2774,
      "Ġtercapai": 2775,
      "Ġmenuju": 2776,
      "Ġkelam": 2777,
      "ĠHami": 2778,
      "ĠSebagai": 2779,
      "Ġnadi": 2780,
      "Ġnuan": 2781,
      "Ġnyanyi": 2782,
      "amailah": 2783,
      "uskan": 2784,
      "ĠRi": 2785,
      "Ġmengganggu": 2786,
      "Ġberserah": 2787,
      "ĠDit": 2788,
      "Ġwh": 2789,
      "Ġohhh": 2790,
      "ĠBicara": 2791,
      "bab": 2792,
      "Ġsenja": 2793,
      "ulih": 2794,
      "Ġib": 2795,
      "Ġmembina": 2796,
      "Ġhargai": 2797,
      "Ġharungi": 2798,
      "Ġpend": 2799,
      "Ġpendam": 2800,
      "ĠPerasa": 2801,
      "Ġmenghalang": 2802,
      "Ġkepala": 2803,
      "antar": 2804,
      "Ġsekarang": 2805,
      "ĠInsan": 2806,
      "Ġhilangkan": 2807,
      "Ġberpura": 2808,
      "Ġdisini": 2809,
      "ĠSiti": 2810,
      "ĠAll": 2811,
      "Ġkehilangan": 2812,
      "Ġsebelum": 2813,
      "ĠZain": 2814,
      "Ġsejarah": 2815,
      "ubuh": 2816,
      "Ġpetang": 2817,
      "Ġbenda": 2818,
      "ĠSekadar": 2819,
      "Ġtingkah": 2820,
      "inggah": 2821,
      "Ġtolonglah": 2822,
      "Ġkonkrit": 2823,
      "Ġhalangan": 2824,
      "ĠMeskipun": 2825,
      "Ġwarnanya": 2826,
      "ĠImpian": 2827,
      "),": 2828,
      "ceb": 2829,
      "kosong": 2830,
      "ro": 2831,
      "row": 2832,
      "se": 2833,
      "tor": 2834,
      "warna": 2835,
      "Ġ?": 2836,
      "Ġau": 2837,
      "Ġ..": 2838,
      "erang": 2839,
      "tal": 2840,
      "Ġminda": 2841,
      "Ġsan": 2842,
      "Ġsik": 2843,
      "Ġsyukur": 2844,
      "Ġsikit": 2845,
      "Ġbadai": 2846,
      "aram": 2847,
      "Ġpemb": 2848,
      "Ġpurnama": 2849,
      "Ġtum": 2850,
      "ĠTentang": 2851,
      "Ġset": 2852,
      "ĠAF": 2853,
      "ĠAbadi": 2854,
      "ĠSaf": 2855,
      "Ġaz": 2856,
      "ĠMiz": 2857,
      "ĠDu": 2858,
      "ĠDayang": 2859,
      "Ġcemburu": 2860,
      "Ġjej": 2861,
      "irat": 2862,
      "Ġrentak": 2863,
      "Ġmenatap": 2864,
      "Ġkekuatan": 2865,
      "ĠHancur": 2866,
      "aji": 2867,
      "uran": 2868,
      "urai": 2869,
      "Ġletak": 2870,
      "ĠIrama": 2871,
      "ĠBerp": 2872,
      "Ġwit": 2873,
      "esona": 2874,
      "elai": 2875,
      "ĠNa": 2876,
      "ĠNaf": 2877,
      "Ġsutera": 2878,
      "ujud": 2879,
      "ulangi": 2880,
      "raf": 2881,
      "ĠGu": 2882,
      "ĠGila": 2883,
      "andung": 2884,
      "Ġsemata": 2885,
      "isahkan": 2886,
      "astian": 2887,
      "ongg": 2888,
      "Ġfaham": 2889,
      "Ġingatan": 2890,
      "Ġyg": 2891,
      "ĠBilakah": 2892,
      "ampaikan": 2893,
      "antas": 2894,
      "Ġserupa": 2895,
      "ilai": 2896,
      "Ġpastikan": 2897,
      "ĠSuatu": 2898,
      "iliki": 2899,
      "Ġasal": 2900,
      "ĠAlangkah": 2901,
      "haru": 2902,
      "Ġberdarah": 2903,
      "Ġberdosa": 2904,
      "ĠMereka": 2905,
      "Ġmenjauh": 2906,
      "ĠTidakkah": 2907,
      "Ġmenyak": 2908,
      "ĠZul": 2909,
      "anted": 2910,
      "Ġpujuk": 2911,
      "Ġbelaka": 2912,
      "Ġpercayalah": 2913,
      "Ġkalimah": 2914,
      "Ġbelantara": 2915,
      "ĠSesal": 2916,
      "Ġmencintai": 2917,
      "utup": 2918,
      "Ġbagiku": 2919,
      "Ġmemuj": 2920,
      "ĠPulanglah": 2921,
      "unjukkan": 2922,
      "ĠRahsia": 2923,
      "Ġcinto": 2924,
      "Ġgurau": 2925,
      "ĠBawalah": 2926,
      "Ġmahligai": 2927,
      "ĠFiona": 2928,
      "Ġucapkan": 2929,
      "Ġsalju": 2930,
      "Ġmaafkan": 2931,
      "Ġdebu": 2932,
      "Ġkeluarga": 2933,
      "ĠDapatkah": 2934,
      "tulus": 2935,
      "ĠImaginasiku": 2936,
      "ĠHamid": 2937,
      "cebis": 2938,
      "00": 2939,
      "cu": 2940,
      "cang": 2941,
      "gas": 2942,
      "iat": 2943,
      "kara": 2944,
      "put": 2945,
      "ynn": 2946,
      "zz": 2947,
      "Ġ4": 2948,
      "Ġik": 2949,
      "erikan": 2950,
      "lat": 2951,
      "lawal": 2952,
      "angs": 2953,
      "Ġmama": 2954,
      "Ġsengketa": 2955,
      "Ġdara": 2956,
      "Ġdok": 2957,
      "Ġdadah": 2958,
      "Ġbata": 2959,
      "Ġbara": 2960,
      "Ġburung": 2961,
      "Ġbalasan": 2962,
      "art": 2963,
      "arak": 2964,
      "Ġpak": 2965,
      "Ġpet": 2966,
      "Ġpingg": 2967,
      "Ġhangat": 2968,
      "Ġhulur": 2969,
      "ĠKon": 2970,
      "Ġtem": 2971,
      "Ġdig": 2972,
      "ĠTab": 2973,
      "Ġsebut": 2974,
      "ĠAlam": 2975,
      "ĠAid": 2976,
      "ĠMei": 2977,
      "ĠBel": 2978,
      "ĠBon": 2979,
      "ĠBaby": 2980,
      "ale": 2981,
      "ĠDe": 2982,
      "Ġcik": 2983,
      "Ġjasad": 2984,
      "Ġtern": 2985,
      "Ġren": 2986,
      "Ġraja": 2987,
      "isap": 2988,
      "ĠHat": 2989,
      "ĠHua": 2990,
      "ĠHitam": 2991,
      "Ġperjuangan": 2992,
      "ĠPinta": 2993,
      "ajar": 2994,
      "ĠRabi": 2995,
      "elina": 2996,
      "Ġtitis": 2997,
      "Ġbersyukur": 2998,
      "dahan": 2999,
      "ĠTerj": 3000,
      "ito": 3001,
      "Ġsayangi": 3002,
      "ĠWo": 3003,
      "ulit": 3004,
      "Ġrasai": 3005,
      "Ġpunca": 3006,
      "Ġmembasahi": 3007,
      "ulut": 3008,
      "Ġkereta": 3009,
      "ĠPerjalanan": 3010,
      "punya": 3011,
      "Ġkenapa": 3012,
      "oman": 3013,
      "Ġlum": 3014,
      "ohh": 3015,
      "antau": 3016,
      "Ġnantikan": 3017,
      "liku": 3018,
      "ulanglah": 3019,
      "Ġdisana": 3020,
      "ost": 3021,
      "damba": 3022,
      "ĠPenawar": 3023,
      "Ġterbuka": 3024,
      "ĠMemberi": 3025,
      "Ġberduka": 3026,
      "Ġberderai": 3027,
      "ĠMasihkah": 3028,
      "Ġadanya": 3029,
      "ubati": 3030,
      "Ġsakti": 3031,
      "dirkan": 3032,
      "Ġbelai": 3033,
      "Ġberdusta": 3034,
      "Ġtanganku": 3035,
      "Ġhiba": 3036,
      "Ġdikenang": 3037,
      "Ġmengharap": 3038,
      "Ġribut": 3039,
      "Ġgerimis": 3040,
      "Ġhadapi": 3041,
      "estui": 3042,
      "Ġmenemani": 3043,
      "ĠGelisah": 3044,
      "ĠBegitulah": 3045,
      "Ġpelat": 3046,
      "Ġwanita": 3047,
      "Ġputuskan": 3048,
      "Ġpenghujung": 3049,
      "Ġambil": 3050,
      "ĠSyawal": 3051,
      "ĠAmboi": 3052,
      "ĠHakeleh": 3053,
      "ĠErti": 3054,
      "uncul": 3055,
      "Ġpejamkan": 3056,
      "Ġpertahankan": 3057,
      "onggol": 3058,
      "ĠRabiu": 3059,
      "Kan": 3060,
      "agu": 3061,
      "cy": 3062,
      "ddi": 3063,
      "deka": 3064,
      "gam": 3065,
      "ie": 3066,
      "kar": 3067,
      "lo": 3068,
      "mar": 3069,
      "ota": 3070,
      "oia": 3071,
      "ui": 3072,
      "yuh": 3073,
      "ĠQ": 3074,
      "Ġasa": 3075,
      "eras": 3076,
      "Ġkaw": 3077,
      "tacy": 3078,
      "enap": 3079,
      "Ġsau": 3080,
      "Ġseri": 3081,
      "Ġsambil": 3082,
      "Ġpohon": 3083,
      "Ġhat": 3084,
      "Ġhalaman": 3085,
      "Ġhappy": 3086,
      "ĠKel": 3087,
      "Ġtuju": 3088,
      "Ġtengah": 3089,
      "Ġtubuh": 3090,
      "unung": 3091,
      "Ġditak": 3092,
      "ĠTah": 3093,
      "ĠTanda": 3094,
      "Ġsejuta": 3095,
      "ĠAyu": 3096,
      "ĠAdam": 3097,
      "ĠAman": 3098,
      "ĠMuh": 3099,
      "ĠMemu": 3100,
      "ambah": 3101,
      "Ġkup": 3102,
      "ĠDua": 3103,
      "Ġcoba": 3104,
      "Ġjanda": 3105,
      "Ġrisau": 3106,
      "ĠHapus": 3107,
      "inggu": 3108,
      "Ġperm": 3109,
      "Ġperhati": 3110,
      "Ġtakde": 3111,
      "ikah": 3112,
      "ĠPayung": 3113,
      "ĠJal": 3114,
      "ĠRoh": 3115,
      "Ġmengata": 3116,
      "Ġmenggoda": 3117,
      "anakan": 3118,
      "Ġlembut": 3119,
      "ĠIman": 3120,
      "ĠBerat": 3121,
      "ĠLafaz": 3122,
      "ĠTerukir": 3123,
      "ĠNama": 3124,
      "ĠNyata": 3125,
      "ekas": 3126,
      "Ġgentar": 3127,
      "itkan": 3128,
      "ĠMenari": 3129,
      "Ġsuaramu": 3130,
      "Ġsupaya": 3131,
      "ujuh": 3132,
      "ĠArrow": 3133,
      "ĠEs": 3134,
      "ampir": 3135,
      "orak": 3136,
      "Ġkerling": 3137,
      "Ġjiwamu": 3138,
      "Ġsifat": 3139,
      "Ġmenyinari": 3140,
      "Ġlubuk": 3141,
      "Ġmelepaskan": 3142,
      "ĠSememang": 3143,
      "ilap": 3144,
      "acun": 3145,
      "ĠKasihmu": 3146,
      "Ġpengalaman": 3147,
      "Ġberteman": 3148,
      "Ġterlihat": 3149,
      "Ġharusku": 3150,
      "esahan": 3151,
      "kiti": 3152,
      "Ġsaksi": 3153,
      "ĠKenapa": 3154,
      "Ġbelaian": 3155,
      "ĠJadikan": 3156,
      "ĠSekali": 3157,
      "Ġmakna": 3158,
      "Ġthat": 3159,
      "Ġtempuhi": 3160,
      "Ġmencengkam": 3161,
      "Ġpintaku": 3162,
      "ukum": 3163,
      "lakhir": 3164,
      "yambut": 3165,
      "ĠShu": 3166,
      "Ġlangkahku": 3167,
      "Ġbonda": 3168,
      "Ġdihatiku": 3169,
      "Ġseluas": 3170,
      "Ġkurnia": 3171,
      "ĠBayangan": 3172,
      "Ġterjaga": 3173,
      "Ġgoyang": 3174,
      "Ġcintanya": 3175,
      "imanakah": 3176,
      "Ġbertambah": 3177,
      "ĠJamadi": 3178,
      "Ġ100": 3179,
      "Ġjambangan": 3180,
      "Ġtulis": 3181,
      "ĠPerasaan": 3182,
      "Ġditakdirkan": 3183,
      "ĠSememangnya": 3184,
      "Di": 3185,
      "Ju": 3186,
      "bangan": 3187,
      "eor": 3188,
      "gung": 3189,
      "gerah": 3190,
      "jara": 3191,
      "luk": 3192,
      "lim": 3193,
      "ugerah": 3194,
      "yp": 3195,
      "Ġus": 3196,
      "Ġikhlas": 3197,
      "Ġkira": 3198,
      "lar": 3199,
      "takan": 3200,
      "angatan": 3201,
      "Ġminta": 3202,
      "Ġmalang": 3203,
      "Ġmisteri": 3204,
      "Ġsya": 3205,
      "Ġdamai": 3206,
      "Ġdingin": 3207,
      "tiba": 3208,
      "yat": 3209,
      "ĠKian": 3210,
      "Ġdic": 3211,
      "ĠTenang": 3212,
      "Ġsehingga": 3213,
      "ĠSlee": 3214,
      "Ġberh": 3215,
      "Ġberbu": 3216,
      "ĠMul": 3217,
      "ĠDetik": 3218,
      "Ġjujur": 3219,
      "Ġjolo": 3220,
      "apri": 3221,
      "Ġterc": 3222,
      "Ġterlalu": 3223,
      "Ġtertanya": 3224,
      "Ġtertawa": 3225,
      "Ġramai": 3226,
      "Ġketip": 3227,
      "Ġlafaz": 3228,
      "ĠHal": 3229,
      "ĠHani": 3230,
      "ĠHafiz": 3231,
      "ĠSeg": 3232,
      "Ġpertemuan": 3233,
      "ikin": 3234,
      "Ġnaluri": 3235,
      "ĠPunya": 3236,
      "ĠLo": 3237,
      "ĠLirik": 3238,
      "Ġoi": 3239,
      "ĠRe": 3240,
      "ĠRuang": 3241,
      "elip": 3242,
      "Ġmenghiris": 3243,
      "ilan": 3244,
      "Ġlidah": 3245,
      "ĠAkulah": 3246,
      "Ġbersendiri": 3247,
      "oncang": 3248,
      "ĠBerc": 3249,
      "Ġwoh": 3250,
      "ekati": 3251,
      "itnya": 3252,
      "ĠMenyambut": 3253,
      "Ġiz": 3254,
      "ĠMengerti": 3255,
      "ĠMenghi": 3256,
      "ĠMengalir": 3257,
      "Ġharapkan": 3258,
      "Ġdengannya": 3259,
      "Ġsemb": 3260,
      "Ġsemes": 3261,
      "Ġmemikir": 3262,
      "Ġmemori": 3263,
      "omok": 3264,
      "Ġselamba": 3265,
      "Ġjanganlah": 3266,
      "Ġsedia": 3267,
      "Ġtersimpan": 3268,
      "Ġtersembunyi": 3269,
      "Ġtersirat": 3270,
      "ĠKec": 3271,
      "ĠKelu": 3272,
      "Ġpuisi": 3273,
      "ĠHarap": 3274,
      "ĠKeranamu": 3275,
      "ejam": 3276,
      "aluan": 3277,
      "Ġudara": 3278,
      "Ġterlintas": 3279,
      "ĠAlham": 3280,
      "Ġsebalik": 3281,
      "buran": 3282,
      "Ġharapanku": 3283,
      "Ġimpianku": 3284,
      "ĠZai": 3285,
      "ubari": 3286,
      "ĠAmy": 3287,
      "Ġrelakan": 3288,
      "Ġgunung": 3289,
      "Ġhijau": 3290,
      "ĠMelodi": 3291,
      "ĠKembalikan": 3292,
      "ĠMenyinari": 3293,
      "ĠMenyuluh": 3294,
      "Ġtempuh": 3295,
      "ĠPastikan": 3296,
      "Ġterkenang": 3297,
      "ĠManusia": 3298,
      "ĠTerpulanglah": 3299,
      "Ġpersen": 3300,
      "Ġsalahku": 3301,
      "ĠKehilangan": 3302,
      "Ġlambang": 3303,
      "Ġhakeleh": 3304,
      "Ġampun": 3305,
      "ĠAngg": 3306,
      "timet": 3307,
      "Ġmenemaniku": 3308,
      "ĠMusim": 3309,
      "ĠSebelum": 3310,
      "Ġbaybe": 3311,
      "ĠJamal": 3312,
      "ĠBergema": 3313,
      "Ġpayah": 3314,
      "ĠMenyayang": 3315,
      "Ġcuriga": 3316,
      "ĠJagalah": 3317,
      "Ġmenyayangi": 3318,
      "Ġdesa": 3319,
      "Ġsanubari": 3320,
      "ĠNafas": 3321,
      "Ġikatan": 3322,
      "ĠAidil": 3323,
      "ĠHattan": 3324,
      "ddie": 3325,
      "Ġhatinya": 3326,
      "eorangan": 3327,
      "aprice": 3328,
      "Ġketipung": 3329,
      "ĠAlhamdul": 3330,
      "Per": 3331,
      "beh": 3332,
      "capan": 3333,
      "din": 3334,
      "kai": 3335,
      "pers": 3336,
      "sing": 3337,
      "te": 3338,
      "tung": 3339,
      "umur": 3340,
      "zy": 3341,
      "ĠV": 3342,
      "Ġwa": 3343,
      "Ġima": 3344,
      "Ġkirim": 3345,
      "tapi": 3346,
      "Ġmato": 3347,
      "Ġmurn": 3348,
      "Ġsir": 3349,
      "Ġsiksa": 3350,
      "Ġsinggah": 3351,
      "Ġdak": 3352,
      "Ġdasar": 3353,
      "kuat": 3354,
      "arkah": 3355,
      "Ġpang": 3356,
      "Ġpemu": 3357,
      "Ġpura": 3358,
      "Ġpahit": 3359,
      "Ġpangku": 3360,
      "Ġpulih": 3361,
      "muk": 3362,
      "Ġhebat": 3363,
      "Ġtw": 3364,
      "ake": 3365,
      "Ġditer": 3366,
      "ĠTan": 3367,
      "Ġsegar": 3368,
      "Ġsebagai": 3369,
      "ĠAmuk": 3370,
      "ĠSah": 3371,
      "ĠSampaikan": 3372,
      "Ġaw": 3373,
      "Ġberat": 3374,
      "Ġberliku": 3375,
      "ĠMew": 3376,
      "ĠBanyak": 3377,
      "alin": 3378,
      "Ġcara": 3379,
      "Ġcaranya": 3380,
      "Ġjadinya": 3381,
      "Ġtari": 3382,
      "Ġria": 3383,
      "Ġratu": 3384,
      "Ġlafazkan": 3385,
      "ĠHai": 3386,
      "ĠHappy": 3387,
      "ingya": 3388,
      "inginan": 3389,
      "ĠSeindah": 3390,
      "ĠSedar": 3391,
      "tum": 3392,
      "ĠPedih": 3393,
      "ĠPintu": 3394,
      "ĠPandangan": 3395,
      "ĠLati": 3396,
      "ĠLidah": 3397,
      "ĠLepaskan": 3398,
      "ajwa": 3399,
      "ĠJer": 3400,
      "ĠJuga": 3401,
      "Ġooo": 3402,
      "ĠRenung": 3403,
      "Ġmengun": 3404,
      "Ġmengadu": 3405,
      "Ġmengusik": 3406,
      "Ġbersamanya": 3407,
      "ayaan": 3408,
      "ĠYale": 3409,
      "Ġdalamnya": 3410,
      "itri": 3411,
      "anjur": 3412,
      "Ġmeronta": 3413,
      "Ġmembe": 3414,
      "ebaran": 3415,
      "Ġkering": 3416,
      "Ġkeresahan": 3417,
      "hira": 3418,
      "Ġbetapa": 3419,
      "ĠAnis": 3420,
      "Ġitulah": 3421,
      "Ġhariku": 3422,
      "ĠBudak": 3423,
      "bahagi": 3424,
      "Ġsedikit": 3425,
      "ree": 3426,
      "eycat": 3427,
      "ĠIntan": 3428,
      "Ġkeseorangan": 3429,
      "ĠFo": 3430,
      "ĠSudik": 3431,
      "ĠPenantian": 3432,
      "akut": 3433,
      "Ġmenantimu": 3434,
      "angkap": 3435,
      "Ġlukaku": 3436,
      "Ġsesal": 3437,
      "Ġpeluk": 3438,
      "osongan": 3439,
      "Ġmesti": 3440,
      "ghang": 3441,
      "ĠShah": 3442,
      "unjung": 3443,
      "Ġrez": 3444,
      "Ġisteri": 3445,
      "untum": 3446,
      "Ġmain": 3447,
      "ĠSering": 3448,
      "ĠMelayan": 3449,
      "Ġkono": 3450,
      "ĠDatanglah": 3451,
      "Ġpedihnya": 3452,
      "Ġdisisiku": 3453,
      "Ġparanoia": 3454,
      "Ġmenghiburkan": 3455,
      "ĠGelora": 3456,
      "ĠNurf": 3457,
      "Ġbaybeh": 3458,
      "Ġcermin": 3459,
      "ĠGadisku": 3460,
      "Ġwooo": 3461,
      "Ġistimewa": 3462,
      "Ġheart": 3463,
      "Ġkeduka": 3464,
      "ĠCukuplah": 3465,
      "Ġbernama": 3466,
      "Ġkorbankan": 3467,
      "Ġterhadapmu": 3468,
      "Ġkelabu": 3469,
      "ĠAmpunkan": 3470,
      "enyapkan": 3471,
      "Ġmewangi": 3472,
      "Ġcomel": 3473,
      "ĠIzinkan": 3474,
      "yakinan": 3475,
      "Ġdijiwa": 3476,
      "atinku": 3477,
      "Ġainon": 3478,
      "ĠAlleycat": 3479,
      "Ġsikap": 3480,
      "ĠDuit": 3481,
      "Ġpetunjuk": 3482,
      "ĠRohingya": 3483,
      "Judul": 3484,
      "Ġjolobu": 3485,
      "ĠHanie": 3486,
      "Ġmurni": 3487,
      "Ġdakapan": 3488,
      "ĠSudikah": 3489,
      "ĠAlleycats": 3490,
      "bat": 3491,
      "dok": 3492,
      "hali": 3493,
      "itu": 3494,
      "ikut": 3495,
      "jam": 3496,
      "jana": 3497,
      "sar": 3498,
      "sungguh": 3499,
      "yar": 3500,
      "Ġil": 3501,
      "Ġuh": 3502,
      "Ġulang": 3503,
      "Ġandainya": 3504,
      "Ġkas": 3505,
      "Ġkamar": 3506,
      "Ġkampung": 3507,
      "inga": 3508,
      "inasa": 3509,
      "angga": 3510,
      "enal": 3511,
      "Ġmandi": 3512,
      "Ġmuncul": 3513,
      "Ġsalam": 3514,
      "Ġdap": 3515,
      "Ġbahu": 3516,
      "Ġbos": 3517,
      "Ġbunyi": 3518,
      "kukan": 3519,
      "arch": 3520,
      "tian": 3521,
      "Ġpon": 3522,
      "Ġhop": 3523,
      "Ġhuru": 3524,
      "ĠKal": 3525,
      "adhan": 3526,
      "unuh": 3527,
      "unaikan": 3528,
      "Ġdilupa": 3529,
      "ĠTika": 3530,
      "Ġsewaktu": 3531,
      "ĠAdi": 3532,
      "ĠSara": 3533,
      "ĠSaja": 3534,
      "Ġberga": 3535,
      "ĠMis": 3536,
      "ĠMekar": 3537,
      "amah": 3538,
      "ambang": 3539,
      "emari": 3540,
      "ĠBagaimana": 3541,
      "alun": 3542,
      "ĠDa": 3543,
      "ĠDem": 3544,
      "ĠDewi": 3545,
      "ukis": 3546,
      "Ġcah": 3547,
      "Ġjodoh": 3548,
      "iringi": 3549,
      "Ġterg": 3550,
      "Ġterdengar": 3551,
      "Ġterucap": 3552,
      "Ġtersalah": 3553,
      "Ġremb": 3554,
      "Ġrilek": 3555,
      "Ġrebah": 3556,
      "Ġmenusuk": 3557,
      "isih": 3558,
      "Ġkeindahan": 3559,
      "Ġkeyakinan": 3560,
      "ĠHei": 3561,
      "ĠHasrat": 3562,
      "ĠSearch": 3563,
      "Ġperh": 3564,
      "Ġperih": 3565,
      "Ġperkara": 3566,
      "ikam": 3567,
      "tur": 3568,
      "asai": 3569,
      "Ġnamanya": 3570,
      "ĠPin": 3571,
      "ĠLu": 3572,
      "ĠLangkah": 3573,
      "ĠLet": 3574,
      "ĠLahir": 3575,
      "ĠJujur": 3576,
      "ĠKup": 3577,
      "ĠRemb": 3578,
      "ĠRamai": 3579,
      "Ġmengalah": 3580,
      "Ġmengukir": 3581,
      "Ġmengenangkan": 3582,
      "Ġleka": 3583,
      "Ġlembah": 3584,
      "ĠIb": 3585,
      "ĠBerakhir": 3586,
      "ĠBertahun": 3587,
      "ĠBerjanji": 3588,
      "Ġwe": 3589,
      "esra": 3590,
      "baikan": 3591,
      "ĠNasi": 3592,
      "ĠNikmat": 3593,
      "Ġganti": 3594,
      "Ġgengg": 3595,
      "itku": 3596,
      "ĠMenuju": 3597,
      "ĠWinc": 3598,
      "Ġkasihan": 3599,
      "anjangan": 3600,
      "ĠUmp": 3601,
      "ĠUmi": 3602,
      "ĠTiga": 3603,
      "ĠBiarku": 3604,
      "Ġrindumu": 3605,
      "ĠEh": 3606,
      "ebang": 3607,
      "epat": 3608,
      "Ġsila": 3609,
      "edia": 3610,
      "Ġmenghantu": 3611,
      "Ġkembalilah": 3612,
      "Ġsekian": 3613,
      "empat": 3614,
      "Ġserba": 3615,
      "Ġterseksa": 3616,
      "ilapan": 3617,
      "Ġkesetia": 3618,
      "Ġhilangnya": 3619,
      "Ġpulak": 3620,
      "Ġjanjiku": 3621,
      "ĠSiapakah": 3622,
      "Ġterbukti": 3623,
      "entukan": 3624,
      "angkai": 3625,
      "Ġjalanan": 3626,
      "ĠAdalah": 3627,
      "aafan": 3628,
      "ancang": 3629,
      "ĠSentiasa": 3630,
      "Ġduri": 3631,
      "Ġgusar": 3632,
      "ĠDialah": 3633,
      "Ġimpikan": 3634,
      "ĠHilangkan": 3635,
      "ĠZurai": 3636,
      "ambar": 3637,
      "Ġmendatang": 3638,
      "Ġbelak": 3639,
      "Ġbelas": 3640,
      "ĠAmira": 3641,
      "Ġterhalang": 3642,
      "Ġmelayang": 3643,
      "Ġpasir": 3644,
      "Ġzahir": 3645,
      "Ġmencuba": 3646,
      "Ġmulai": 3647,
      "Ġmemanggil": 3648,
      "isuri": 3649,
      "ĠDengarkanlah": 3650,
      "ĠTersimpan": 3651,
      "ĠTerpaksa": 3652,
      "ĠSenyuman": 3653,
      "Ġgerak": 3654,
      "hibur": 3655,
      "Ġalunan": 3656,
      "Ġbakal": 3657,
      "Ġmenarik": 3658,
      "untuh": 3659,
      "Ġmusim": 3660,
      "ĠIndahnya": 3661,
      "ĠLalala": 3662,
      "Ġtanyo": 3663,
      "Ġdimana": 3664,
      "agih": 3665,
      "Ġkhayal": 3666,
      "Ġsayap": 3667,
      "Ġpeluang": 3668,
      "kunci": 3669,
      "ĠTinggallah": 3670,
      "Ġwanna": 3671,
      "Ġapakah": 3672,
      "aizah": 3673,
      "ĠSabarlah": 3674,
      "Ġkumbang": 3675,
      "Ġsentuhan": 3676,
      "Ġmengenali": 3677,
      "tutup": 3678,
      "Ġngeri": 3679,
      "Ġidaman": 3680,
      "Ġyour": 3681,
      "Ġkabus": 3682,
      "Ġmenitis": 3683,
      "ĠHassan": 3684,
      "Ġnyanyian": 3685,
      "ĠGugur": 3686,
      "ĠPintaku": 3687,
      "Ġlumrah": 3688,
      "ĠNamamu": 3689,
      "ĠAlhamdulillah": 3690,
      "Ġrezeki": 3691,
      "ĠNurfaizah": 3692,
      "ĠWincci": 3693,
      "ĠUmpama": 3694,
      "ĠZuraida": 3695,
      "Az": 3696,
      "Joe": 3697,
      "Knock": 3698,
      "ael": 3699,
      "cik": 3700,
      "dera": 3701,
      "fi": 3702,
      "fora": 3703,
      "fitri": 3704,
      "ging": 3705,
      "gma": 3706,
      "iarkan": 3707,
      "jang": 3708,
      "po": 3709,
      "rasa": 3710,
      "uai": 3711,
      "ye": 3712,
      "yarkan": 3713,
      "ze": 3714,
      "Ġv": 3715,
      "Ġit": 3716,
      "Ġknock": 3717,
      "intih": 3718,
      "Ġmat": 3719,
      "Ġmulut": 3720,
      "Ġsat": 3721,
      "Ġsisa": 3722,
      "Ġdew": 3723,
      "Ġbuntu": 3724,
      "arau": 3725,
      "Ġpal": 3726,
      "Ġpara": 3727,
      "Ġhembus": 3728,
      "aspada": 3729,
      "Ġtuan": 3730,
      "Ġtengok": 3731,
      "ĠTanya": 3732,
      "ĠTujuh": 3733,
      "ĠTakut": 3734,
      "Ġsesaat": 3735,
      "Ġsecebis": 3736,
      "ĠAto": 3737,
      "ĠSam": 3738,
      "ĠSukar": 3739,
      "ĠSumpah": 3740,
      "ĠSandiwara": 3741,
      "ĠMak": 3742,
      "ĠMal": 3743,
      "ĠMalu": 3744,
      "ĠMost": 3745,
      "Ġkudamba": 3746,
      "ĠBatu": 3747,
      "aleh": 3748,
      "ĠData": 3749,
      "ĠDerita": 3750,
      "ĠDendam": 3751,
      "Ġjari": 3752,
      "ire": 3753,
      "Ġterbu": 3754,
      "Ġtercinta": 3755,
      "Ġtergoda": 3756,
      "Ġterharu": 3757,
      "Ġrun": 3758,
      "Ġres": 3759,
      "Ġmenawan": 3760,
      "Ġkebahagia": 3761,
      "Ġkedua": 3762,
      "ĠHabis": 3763,
      "ings": 3764,
      "inggi": 3765,
      "gul": 3766,
      "ungkur": 3767,
      "paku": 3768,
      "patah": 3769,
      "ikalau": 3770,
      "ĠLantas": 3771,
      "atai": 3772,
      "ĠRin": 3773,
      "elang": 3774,
      "ĠCer": 3775,
      "ĠCarilah": 3776,
      "Ġmengenang": 3777,
      "Ġmengubati": 3778,
      "ayangan": 3779,
      "Ġlang": 3780,
      "Ġbersu": 3781,
      "onang": 3782,
      "ĠBeri": 3783,
      "ĠBerla": 3784,
      "ĠBerhari": 3785,
      "esan": 3786,
      "ĠOo": 3787,
      "ĠOleh": 3788,
      "ĠTerh": 3789,
      "ĠNan": 3790,
      "itung": 3791,
      "ĠMeniti": 3792,
      "atut": 3793,
      "Ġtep": 3794,
      "ĠWarna": 3795,
      "Ġsenandung": 3796,
      "Ġsuluh": 3797,
      "abuk": 3798,
      "abatku": 3799,
      "ĠUsta": 3800,
      "ĠGur": 3801,
      "maaf": 3802,
      "ebur": 3803,
      "Ġpenanti": 3804,
      "Ġfor": 3805,
      "Ġmenyentuh": 3806,
      "Ġmenyedari": 3807,
      "Ġmenyesal": 3808,
      "avy": 3809,
      "etafora": 3810,
      "Ġkepadanya": 3811,
      "empur": 3812,
      "Ġterpesona": 3813,
      "ĠKetika": 3814,
      "Ġbiarpun": 3815,
      "ianati": 3816,
      "ĠSuasana": 3817,
      "Ġuu": 3818,
      "Ġkehendak": 3819,
      "Ġmenyapa": 3820,
      "Ġmenyatu": 3821,
      "ĠSayu": 3822,
      "Ġsesama": 3823,
      "ĠAmelina": 3824,
      "Ġkalinya": 3825,
      "ĠSekian": 3826,
      "Ġmake": 3827,
      "Ġsinaran": 3828,
      "Ġnafsu": 3829,
      "Ġbayangmu": 3830,
      "Ġterkata": 3831,
      "ĠBegini": 3832,
      "ĠBersamamu": 3833,
      "ĠJiwaku": 3834,
      "ĠDengarkan": 3835,
      "Ġmengharung": 3836,
      "Ġgagal": 3837,
      "ght": 3838,
      "Ġataupun": 3839,
      "Ġberlagu": 3840,
      "ĠSenyumlah": 3841,
      "hij": 3842,
      "dikit": 3843,
      "Ġdaging": 3844,
      "Ġnyawaku": 3845,
      "Ġkejam": 3846,
      "ĠKehadir": 3847,
      "ĠBerkasih": 3848,
      "Ġditelan": 3849,
      "Ġmiskin": 3850,
      "ĠMengharapkan": 3851,
      "ĠBerikanlah": 3852,
      "Ġmendusta": 3853,
      "ĠNurhali": 3854,
      "ĠBukalah": 3855,
      "Ġciptaan": 3856,
      "hout": 3857,
      "Ġpelukan": 3858,
      "Ġheavy": 3859,
      "ĠAdira": 3860,
      "ĠBagiku": 3861,
      "Ġjernih": 3862,
      "ĠPelangi": 3863,
      "Ġsampingku": 3864,
      "ĠMarry": 3865,
      "Ġberputar": 3866,
      "Ġlukisan": 3867,
      "Ġpengorbanan": 3868,
      "Ġkulit": 3869,
      "ĠBaek": 3870,
      "ĠBerteman": 3871,
      "Ġtermenung": 3872,
      "Ġnegara": 3873,
      "ĠRiang": 3874,
      "Ġwhere": 3875,
      "Ġmemujuk": 3876,
      "Ġpakai": 3877,
      "Ġperminta": 3878,
      "ĠEsok": 3879,
      "ĠSleeq": 3880,
      "ĠAidilfitri": 3881,
      "Ġimaginasiku": 3882,
      "ĠLatif": 3883,
      "ĠAdiw": 3884,
      "ĠSarawak": 3885,
      "ĠUstaz": 3886,
      "ĠNurhaliza": 3887,
      "Am": 3888,
      "Hey": 3889,
      "Lagu": 3890,
      "Tak": 3891,
      "dan": 3892,
      "ebut": 3893,
      "gau": 3894,
      "graf": 3895,
      "hlas": 3896,
      "iangan": 3897,
      "igma": 3898,
      "jata": 3899,
      "kali": 3900,
      "mm": 3901,
      "mah": 3902,
      "sana": 3903,
      "ty": 3904,
      "viti": 3905,
      "xth": 3906,
      "zi": 3907,
      "Ġangan": 3908,
      "Ġuj": 3909,
      "Ġukir": 3910,
      "Ġungk": 3911,
      "Ġkeman": 3912,
      "Ġkembang": 3913,
      "lai": 3914,
      "lallah": 3915,
      "enak": 3916,
      "Ġmoga": 3917,
      "Ġmadah": 3918,
      "Ġdur": 3919,
      "Ġbasah": 3920,
      "Ġbagaimana": 3921,
      "Ġbikin": 3922,
      "Ġbatinku": 3923,
      "Ġbinasa": 3924,
      "ahat": 3925,
      "tiwa": 3926,
      "Ġpot": 3927,
      "Ġpuluh": 3928,
      "ĠKahwin": 3929,
      "Ġtuj": 3930,
      "Ġtand": 3931,
      "Ġtenggelam": 3932,
      "Ġdicari": 3933,
      "ĠTahu": 3934,
      "ĠTenggelam": 3935,
      "Ġseiring": 3936,
      "ĠAinan": 3937,
      "ĠAyuh": 3938,
      "ĠSeng": 3939,
      "ĠSia": 3940,
      "ĠSusah": 3941,
      "atri": 3942,
      "Ġberku": 3943,
      "Ġbermu": 3944,
      "Ġbertu": 3945,
      "Ġbertahun": 3946,
      "ĠMa": 3947,
      "ĠMaya": 3948,
      "ĠMilik": 3949,
      "lahi": 3950,
      "ĠBela": 3951,
      "ĠDamailah": 3952,
      "uko": 3953,
      "apun": 3954,
      "iras": 3955,
      "adaan": 3956,
      "Ġrem": 3957,
      "Ġrantau": 3958,
      "istiwa": 3959,
      "Ġlap": 3960,
      "ĠHendak": 3961,
      "gugur": 3962,
      "ĠSegar": 3963,
      "ĠSeorang": 3964,
      "ĠSedikit": 3965,
      "Ġperempuan": 3966,
      "tura": 3967,
      "tuju": 3968,
      "Ġne": 3969,
      "ĠPi": 3970,
      "ĠLepas": 3971,
      "ĠLelaki": 3972,
      "ĠJelas": 3973,
      "ĠJoe": 3974,
      "amaian": 3975,
      "Ġotak": 3976,
      "ely": 3977,
      "elora": 3978,
      "elenggu": 3979,
      "ways": 3980,
      "ĠCakap": 3981,
      "pijak": 3982,
      "ill": 3983,
      "Ġinilah": 3984,
      "Ġles": 3985,
      "Ġlima": 3986,
      "Ġlew": 3987,
      "Ġlindungi": 3988,
      "Ġtika": 3989,
      "Ġbersedia": 3990,
      "ĠYakin": 3991,
      "ĠBerl": 3992,
      "ĠBerlalu": 3993,
      "ĠLai": 3994,
      "ĠTerang": 3995,
      "ĠTerangi": 3996,
      "elak": 3997,
      "ĠNiat": 3998,
      "Ġgebang": 3999,
      "ĠMend": 4000,
      "ĠMenanggung": 4001,
      "Ġtetapi": 4002,
      "ĠWan": 4003,
      "ĠWanted": 4004,
      "Ġsuasana": 4005,
      "abadi": 4006,
      "uld": 4007,
      "ullah": 4008,
      "razy": 4009,
      "Ġpunah": 4010,
      "Ġmembenci": 4011,
      "ĠEm": 4012,
      "Ġdenganku": 4013,
      "Ġsempat": 4014,
      "orm": 4015,
      "Ġmemohon": 4016,
      "ĠAnita": 4017,
      "ĠPerlu": 4018,
      "ĠPerma": 4019,
      "ĠPertama": 4020,
      "Ġbahtera": 4021,
      "Ġfit": 4022,
      "Ġkenali": 4023,
      "ĠBudi": 4024,
      "Ġmenyus": 4025,
      "Ġmenyinar": 4026,
      "ombang": 4027,
      "edar": 4028,
      "dian": 4029,
      "Ġkekosongan": 4030,
      "eritaan": 4031,
      "Ġcucuk": 4032,
      "ĠSemen": 4033,
      "Ġterpandang": 4034,
      "Ġterpendam": 4035,
      "Ġterpatri": 4036,
      "ĠHatimu": 4037,
      "ĠInikah": 4038,
      "Ġkesabaran": 4039,
      "ĠFor": 4040,
      "ĠFaz": 4041,
      "ĠFynn": 4042,
      "ikaze": 4043,
      "Ġbiarlah": 4044,
      "Ġpengerti": 4045,
      "entuan": 4046,
      "ancar": 4047,
      "Ġsebelah": 4048,
      "Ġmenyatakan": 4049,
      "ĠSeparuh": 4050,
      "Ġmatiku": 4051,
      "Ġmenderita": 4052,
      "hatiku": 4053,
      "kurun": 4054,
      "tinggi": 4055,
      "Ġbelanja": 4056,
      "Ġgunanya": 4057,
      "Ġpastinya": 4058,
      "ĠSekarang": 4059,
      "Ġniat": 4060,
      "impangan": 4061,
      "Ġdibina": 4062,
      "Ġsahabatku": 4063,
      "Ġalami": 4064,
      "Ġbangsa": 4065,
      "Ġgagah": 4066,
      "tograf": 4067,
      "ĠRamadhan": 4068,
      "Ġmusnah": 4069,
      "tulis": 4070,
      "Ġkejayaan": 4071,
      "ĠâĢľ": 4072,
      "ĠMudah": 4073,
      "arnai": 4074,
      "Ġkebaya": 4075,
      "Ġsakitnya": 4076,
      "Ġtelinga": 4077,
      "Ġdilema": 4078,
      "ĠMastura": 4079,
      "Ġmembuatku": 4080,
      "Ġare": 4081,
      "Ġmenghias": 4082,
      "Ġselagi": 4083,
      "ĠSanggup": 4084,
      "Ġragaku": 4085,
      "ĠLihatlah": 4086,
      "ĠIklim": 4087,
      "ĠIkhlas": 4088,
      "kuntum": 4089,
      "ĠBenarkah": 4090,
      "Ġpenggantimu": 4091,
      "ĠMencintai": 4092,
      "ĠMencintaimu": 4093,
      "Ġcurahkan": 4094,
      "Ġgemilang": 4095,
      "ĠMenerangi": 4096,
      "etaran": 4097,
      "ikmah": 4098,
      "ikmati": 4099,
      "Ġkaca": 4100,
      "ĠKamikaze": 4101,
      "ĠRafael": 4102,
      "Ġrintangannya": 4103,
      "Ġparas": 4104,
      "ĠCobaan": 4105,
      "imbas": 4106,
      "Ġanggap": 4107,
      "ĠDitinggal": 4108,
      "Ġibarat": 4109,
      "Ġtumbuh": 4110,
      "ĠMizal": 4111,
      "Ġletaknya": 4112,
      "Ġsaudara": 4113,
      "Ġberbudi": 4114,
      "Perempuan": 4115,
      "Ġmembeku": 4116,
      "ĠFotograf": 4117,
      "Ġsikapmu": 4118,
      "Ġbergaya": 4119,
      "Ġrembulan": 4120,
      "ĠRembau": 4121,
      "Ġmenghantui": 4122,
      "Ġdewasa": 4123,
      "aleha": 4124,
      "Gadis": 4125,
      "Soo": 4126,
      "Zaleha": 4127,
      "bunga": 4128,
      "cam": 4129,
      "ds": 4130,
      "der": 4131,
      "ee": 4132,
      "fs": 4133,
      "ib": 4134,
      "kala": 4135,
      "limah": 4136,
      "me": 4137,
      "mak": 4138,
      "namu": 4139,
      "now": 4140,
      "ran": 4141,
      "sakit": 4142,
      "tun": 4143,
      "tunya": 4144,
      "uw": 4145,
      "uci": 4146,
      "utih": 4147,
      "udahan": 4148,
      "eraw": 4149,
      "Ġkiri": 4150,
      "Ġkaku": 4151,
      "Ġkembara": 4152,
      "Ġknow": 4153,
      "tawan": 4154,
      "indam": 4155,
      "Ġminggu": 4156,
      "Ġmabuk": 4157,
      "Ġsoh": 4158,
      "Ġbandingan": 4159,
      "ahah": 4160,
      "Ġpek": 4161,
      "Ġpabila": 4162,
      "Ġhidu": 4163,
      "Ġhand": 4164,
      "Ġhisap": 4165,
      "Ġhikmah": 4166,
      "unkan": 4167,
      "akiti": 4168,
      "Ġdihar": 4169,
      "ĠTe": 4170,
      "ĠTu": 4171,
      "ĠTau": 4172,
      "ĠTangan": 4173,
      "ĠTunggu": 4174,
      "ĠTulus": 4175,
      "Ġsetelah": 4176,
      "Ġseumur": 4177,
      "ĠAc": 4178,
      "ĠAj": 4179,
      "ĠAna": 4180,
      "ĠAli": 4181,
      "ĠSakin": 4182,
      "Ġabang": 4183,
      "Ġberapa": 4184,
      "Ġbertahan": 4185,
      "ĠMama": 4186,
      "ĠMai": 4187,
      "ĠMalah": 4188,
      "ĠMonggol": 4189,
      "Ġkuc": 4190,
      "emis": 4191,
      "emahan": 4192,
      "ĠBang": 4193,
      "ĠBara": 4194,
      "alih": 4195,
      "alis": 4196,
      "ĠDo": 4197,
      "ĠDimana": 4198,
      "ĠDimanakah": 4199,
      "ĠDely": 4200,
      "Ġca": 4201,
      "Ġcerah": 4202,
      "Ġcampak": 4203,
      "Ġcepat": 4204,
      "intal": 4205,
      "Ġjawab": 4206,
      "appa": 4207,
      "irah": 4208,
      "Ġtali": 4209,
      "Ġterukir": 4210,
      "Ġtertahan": 4211,
      "Ġrap": 4212,
      "Ġmendak": 4213,
      "Ġmenaf": 4214,
      "Ġketah": 4215,
      "ĠHanyut": 4216,
      "duga": 4217,
      "init": 4218,
      "ĠSeh": 4219,
      "ĠSelu": 4220,
      "ĠSetahun": 4221,
      "ĠSejuta": 4222,
      "Ġtakbir": 4223,
      "ike": 4224,
      "turi": 4225,
      "Ġnok": 4226,
      "ĠPandang": 4227,
      "ĠPandai": 4228,
      "ĠPilih": 4229,
      "ĠPuja": 4230,
      "ĠLum": 4231,
      "ĠJang": 4232,
      "ĠJawapan": 4233,
      "ĠJikalau": 4234,
      "Ġoohh": 4235,
      "elana": 4236,
      "Ġkitakan": 4237,
      "dai": 4238,
      "ĠCr": 4239,
      "ĠCita": 4240,
      "ĠCom": 4241,
      "Ġmenging": 4242,
      "iling": 4243,
      "Ġliku": 4244,
      "Ġlekas": 4245,
      "uhkan": 4246,
      "ĠIl": 4247,
      "tukar": 4248,
      "ĠBerj": 4249,
      "ĠBercinta": 4250,
      "ĠBertanya": 4251,
      "Ġwang": 4252,
      "alifah": 4253,
      "ĠOk": 4254,
      "ĠOoh": 4255,
      "ĠOmbak": 4256,
      "ĠTerhenti": 4257,
      "ĠTerdengar": 4258,
      "ĠNo": 4259,
      "ĠNana": 4260,
      "ĠNaz": 4261,
      "ĠNajwa": 4262,
      "ekalan": 4263,
      "ukai": 4264,
      "iduri": 4265,
      "itanya": 4266,
      "lama": 4267,
      "Ġteb": 4268,
      "ĠWings": 4269,
      "anjak": 4270,
      "anjung": 4271,
      "Ġsuju": 4272,
      "âĢĿ": 4273,
      "ĠGelap": 4274,
      "Ġmembantu": 4275,
      "Ġkanan": 4276,
      "ampar": 4277,
      "Ġsemoga": 4278,
      "Ġmempers": 4279,
      "eping": 4280,
      "Ġkatamu": 4281,
      "ĠPerl": 4282,
      "ĠPers": 4283,
      "ĠPermata": 4284,
      "awi": 4285,
      "aww": 4286,
      "Ġapakan": 4287,
      "Ġfr": 4288,
      "Ġmelepas": 4289,
      "Ġmelenggang": 4290,
      "antasi": 4291,
      "Ġsekolah": 4292,
      "ĠApabila": 4293,
      "ret": 4294,
      "Ġserup": 4295,
      "ĠNamunku": 4296,
      "ilauan": 4297,
      "Ġkesal": 4298,
      "ĠFli": 4299,
      "aca": 4300,
      "acuni": 4301,
      "lie": 4302,
      "Ġberpanjangan": 4303,
      "eluh": 4304,
      "Ġbertentang": 4305,
      "Ġbisaku": 4306,
      "ĠSuci": 4307,
      "ĠSibuk": 4308,
      "Ġterbakar": 4309,
      "Ġdapatku": 4310,
      "ĠMembiarkan": 4311,
      "Ġberkorban": 4312,
      "ĠMerah": 4313,
      "Ġwajahku": 4314,
      "Ġsebe": 4315,
      "mbira": 4316,
      "Ġgumbira": 4317,
      "Ġmenyakiti": 4318,
      "Ġakhirat": 4319,
      "Ġmendekati": 4320,
      "Ġsejiwa": 4321,
      "Ġbeginilah": 4322,
      "Ġsesungguhnya": 4323,
      "Ġnamaku": 4324,
      "kurangan": 4325,
      "Ġsyurgawi": 4326,
      "Ġmelayan": 4327,
      "Ġmelakukan": 4328,
      "Ġsepertimu": 4329,
      "Ġtinggalkanku": 4330,
      "Ġragam": 4331,
      "Ġperasaanmu": 4332,
      "Ġmerindukan": 4333,
      "uddin": 4334,
      "Ġbayangnya": 4335,
      "Ġniatku": 4336,
      "Ġterkasar": 4337,
      "Ġmencuri": 4338,
      "impah": 4339,
      "Ġsahabat": 4340,
      "Ġkeranamu": 4341,
      "Ġbangga": 4342,
      "ĠManakah": 4343,
      "ĠTersiksa": 4344,
      "Ġriuh": 4345,
      "Ġberlaku": 4346,
      "ĠSelayak": 4347,
      "Ġkemenangan": 4348,
      "Ġsengaja": 4349,
      "ĠHarapanku": 4350,
      "eraikan": 4351,
      "Ġalways": 4352,
      "Ġjagaku": 4353,
      "Ġenigma": 4354,
      "Ġpesona": 4355,
      "Ġambang": 4356,
      "upanya": 4357,
      "Ġditinggalkan": 4358,
      "neem": 4359,
      "Ġtidurku": 4360,
      "Ġdilanda": 4361,
      "Ġtanah": 4362,
      "Ġdimamah": 4363,
      "Ġbangunlah": 4364,
      "enderaw": 4365,
      "Ġrintihan": 4366,
      "ĠRahman": 4367,
      "ungkap": 4368,
      "ĠTolonglah": 4369,
      "ĠIkatan": 4370,
      "Ġpilihan": 4371,
      "Ġdibuang": 4372,
      "Ġsegera": 4373,
      "Ġsegenap": 4374,
      "Ġkedamaian": 4375,
      "ĠHujung": 4376,
      "Ġapo": 4377,
      "Ġtawamu": 4378,
      "ecewa": 4379,
      "Ġcurang": 4380,
      "ĠPuas": 4381,
      "edup": 4382,
      "Ġmelukai": 4383,
      "Ġmelukakan": 4384,
      "Ġpesanan": 4385,
      "Ġsentuh": 4386,
      "Ġmasuk": 4387,
      "Ġketentuan": 4388,
      "Ġpermainan": 4389,
      "Ġhuuu": 4390,
      "Ġonak": 4391,
      "linang": 4392,
      "ĠAdikku": 4393,
      "oget": 4394,
      "bulkan": 4395,
      "ĠTasneem": 4396,
      "Ġchai": 4397,
      "ompl": 4398,
      "Ġberterus": 4399,
      "ĠSalahkah": 4400,
      "Ġnadiku": 4401,
      "Ġtingkahmu": 4402,
      "Ġauu": 4403,
      "Ġwith": 4404,
      "ĠZulhij": 4405,
      "zzow": 4406,
      "Ġbatasan": 4407,
      "Ġhulurkan": 4408,
      "ĠMulia": 4409,
      "ĠLove": 4410,
      "Ġizin": 4411,
      "Ġsembunyi": 4412,
      "Ġkedukaan": 4413,
      "ĠNasib": 4414,
      "Aziz": 4415,
      "Ġpalsu": 4416,
      "ĠMalunya": 4417,
      "Ġrunsing": 4418,
      "ĠRintihan": 4419,
      "ĠOoaww": 4420,
      "ĠUstazku": 4421,
      "ĠBerlenggang": 4422,
      "ĠSakinah": 4423,
      "ĠDelylah": 4424,
      "Ġsujud": 4425,
      "Ġserupo": 4426,
      "ĠFlizzow": 4427,
      "ĠSelayaknya": 4428,
      "enderawasih": 4429,
      "ĠZulhijjah": 4430,
      "01": 4431,
      "Ah": 4432,
      "As": 4433,
      "Caprice": 4434,
      "Dato": 4435,
      "Lelaki": 4436,
      "Raf": 4437,
      "aq": 4438,
      "buhan": 4439,
      "egang": 4440,
      "fire": 4441,
      "genda": 4442,
      "hara": 4443,
      "hiri": 4444,
      "icara": 4445,
      "ipu": 4446,
      "jat": 4447,
      "mana": 4448,
      "ni": 4449,
      "ook": 4450,
      "panya": 4451,
      "ris": 4452,
      "rus": 4453,
      "rai": 4454,
      "sik": 4455,
      "tinasi": 4456,
      "zik": 4457,
      "Ġ5": 4458,
      "Ġiman": 4459,
      "Ġanakan": 4460,
      "aneka": 4461,
      "eru": 4462,
      "Ġkom": 4463,
      "Ġkilau": 4464,
      "tasi": 4465,
      "inangan": 4466,
      "inkanlah": 4467,
      "enam": 4468,
      "ening": 4469,
      "enjara": 4470,
      "Ġmi": 4471,
      "Ġmungk": 4472,
      "Ġsandiwara": 4473,
      "Ġdin": 4474,
      "Ġdinda": 4475,
      "Ġdendang": 4476,
      "Ġbini": 4477,
      "Ġbisu": 4478,
      "kuri": 4479,
      "ahtera": 4480,
      "Ġpr": 4481,
      "Ġpan": 4482,
      "kanku": 4483,
      "Ġhir": 4484,
      "Ġheh": 4485,
      "ĠKaya": 4486,
      "ĠKeman": 4487,
      "ĠKuntum": 4488,
      "aso": 4489,
      "asut": 4490,
      "Ġtutu": 4491,
      "Ġtunjukkan": 4492,
      "adapi": 4493,
      "unai": 4494,
      "aksikan": 4495,
      "Ġdila": 4496,
      "Ġditi": 4497,
      "ĠTo": 4498,
      "ĠTok": 4499,
      "Ġsebu": 4500,
      "ĠSpi": 4501,
      "ĠStacy": 4502,
      "Ġab": 4503,
      "Ġay": 4504,
      "Ġberun": 4505,
      "Ġberkubur": 4506,
      "ĠMetafora": 4507,
      "engku": 4508,
      "Ġkuat": 4509,
      "ĠBumi": 4510,
      "ĠBurn": 4511,
      "ĠDil": 4512,
      "ĠDes": 4513,
      "ĠDarah": 4514,
      "ĠDaku": 4515,
      "ĠDekat": 4516,
      "Ġco": 4517,
      "Ġcaramu": 4518,
      "Ġcabaran": 4519,
      "Ġcrazy": 4520,
      "irami": 4521,
      "Ġtabir": 4522,
      "Ġteruja": 4523,
      "Ġteringat": 4524,
      "Ġterdiam": 4525,
      "Ġterfikir": 4526,
      "Ġtertawan": 4527,
      "Ġmenim": 4528,
      "Ġmenemu": 4529,
      "Ġmenagih": 4530,
      "Ġkew": 4531,
      "Ġkepa": 4532,
      "Ġkedai": 4533,
      "Ġkekurangan": 4534,
      "Ġlak": 4535,
      "Ġlawan": 4536,
      "Ġlayak": 4537,
      "Ġlamun": 4538,
      "ĠHangat": 4539,
      "dus": 4540,
      "ĠSeolah": 4541,
      "ĠSetulus": 4542,
      "ungg": 4543,
      "Ġtakdo": 4544,
      "ikian": 4545,
      "ikayat": 4546,
      "rimad": 4547,
      "ĠPa": 4548,
      "ĠPus": 4549,
      "ĠPaksa": 4550,
      "ĠLamba": 4551,
      "atas": 4552,
      "ĠJantung": 4553,
      "ĠJodoh": 4554,
      "ĠJoget": 4555,
      "ĠKuala": 4556,
      "Ġok": 4557,
      "Ġoo": 4558,
      "Ġone": 4559,
      "ĠRej": 4560,
      "ĠRedup": 4561,
      "eluk": 4562,
      "eliling": 4563,
      "dayu": 4564,
      "urah": 4565,
      "ĠCin": 4566,
      "ĠCenderawasih": 4567,
      "Ġmengasih": 4568,
      "Ġlemas": 4569,
      "Ġtidok": 4570,
      "ĠIlusi": 4571,
      "ĠBerpu": 4572,
      "ĠBerpisah": 4573,
      "ĠDib": 4574,
      "ĠDibu": 4575,
      "Ġwangi": 4576,
      "esatan": 4577,
      "ĠLaila": 4578,
      "ĠOne": 4579,
      "ĠTercipta": 4580,
      "ĠTeringat": 4581,
      "ĠNyanyi": 4582,
      "ĠNyanyikan": 4583,
      "ekad": 4584,
      "ekal": 4585,
      "Ġgir": 4586,
      "ĠMeneman": 4587,
      "ĠMendengar": 4588,
      "buri": 4589,
      "Ġbuto": 4590,
      "ĠWit": 4591,
      "Ġundur": 4592,
      "ĠUdah": 4593,
      "Ġmerancang": 4594,
      "Ġmerintih": 4595,
      "raviti": 4596,
      "ĠMengenangkan": 4597,
      "ĠGem": 4598,
      "Ġmemburu": 4599,
      "Ġmembuang": 4600,
      "ĠArtist": 4601,
      "ĠEmb": 4602,
      "Ġpergilah": 4603,
      "ampiri": 4604,
      "ampingi": 4605,
      "Ġsemati": 4606,
      "ebalik": 4607,
      "Ġmemaaf": 4608,
      "yukuri": 4609,
      "Ġkataku": 4610,
      "ĠAnugerah": 4611,
      "Ġbahwa": 4612,
      "Ġbahawa": 4613,
      "Ġfi": 4614,
      "ĠBukanlah": 4615,
      "Ġmenyelam": 4616,
      "Ġmenyendiri": 4617,
      "Ġmenyeksa": 4618,
      "Ġmahukan": 4619,
      "Ġlurus": 4620,
      "Ġkepastian": 4621,
      "Ġdahan": 4622,
      "Ġsekeliling": 4623,
      "Ġduniawi": 4624,
      "ĠSemadi": 4625,
      "ĠSementara": 4626,
      "Ġterputus": 4627,
      "Ġmungkinkah": 4628,
      "Ġinginku": 4629,
      "Ġkesesatan": 4630,
      "ĠFahami": 4631,
      "ace": 4632,
      "Ġseparuh": 4633,
      "lipur": 4634,
      "Ġberpadu": 4635,
      "Ġdisamping": 4636,
      "ĠKalaulah": 4637,
      "ĠSupaya": 4638,
      "Ġub": 4639,
      "Ġterbi": 4640,
      "ĠAltimet": 4641,
      "mbung": 4642,
      "Ġnyalakan": 4643,
      "Ġado": 4644,
      "Ġadakah": 4645,
      "Ġadui": 4646,
      "Ġberbisa": 4647,
      "Ġberbicara": 4648,
      "ĠHilangkanlah": 4649,
      "ĠSepasang": 4650,
      "ambarkan": 4651,
      "Ġmendengar": 4652,
      "ĠRinduku": 4653,
      "Ġlahir": 4654,
      "Ġdipandang": 4655,
      "Ġdipisahkan": 4656,
      "ĠSatukan": 4657,
      "Ġberduri": 4658,
      "Ġbencana": 4659,
      "ancuran": 4660,
      "Ġhujungnya": 4661,
      "Ġhidung": 4662,
      "Ġpasrah": 4663,
      "Ġdengarkan": 4664,
      "Ġdengarkanlah": 4665,
      "Ġkelemahan": 4666,
      "Ġthis": 4667,
      "ĠHadirnya": 4668,
      "ĠKepastian": 4669,
      "Ġberikanlah": 4670,
      "ĠDahlan": 4671,
      "impul": 4672,
      "Ġdiberi": 4673,
      "Ġdibalas": 4674,
      "ĠKesan": 4675,
      "ĠKesal": 4676,
      "Ġdikonang": 4677,
      "Ġgaji": 4678,
      "Ġmulo": 4679,
      "Ġresahku": 4680,
      "ĠBisikan": 4681,
      "Ġlangkahmu": 4682,
      "katamu": 4683,
      "Ġkemaafan": 4684,
      "Ġgerhana": 4685,
      "Ġkalbuku": 4686,
      "Ġbercerita": 4687,
      "ĠBuatlah": 4688,
      "Ġmemuja": 4689,
      "Ġmemuji": 4690,
      "ĠMahuku": 4691,
      "ĠAkim": 4692,
      "Ġselembut": 4693,
      "ĠAtaupun": 4694,
      "ĠBerkali": 4695,
      "ĠKepadamu": 4696,
      "debu": 4697,
      "Ġkurasa": 4698,
      "Ġterjatuh": 4699,
      "Ġtell": 4700,
      "ĠMenantikan": 4701,
      "ĠMusnah": 4702,
      "ĠPengorban": 4703,
      "Ġdayaku": 4704,
      "Ġceria": 4705,
      "ĠIngatlah": 4706,
      "ĠTerkenang": 4707,
      "ĠPastinya": 4708,
      "ĠPernahkah": 4709,
      "Ġasyiknya": 4710,
      "Ġadikku": 4711,
      "ucapkan": 4712,
      "Ġpenyeri": 4713,
      "ĠSyaaban": 4714,
      "ĠAzizah": 4715,
      "ĠKhalifah": 4716,
      "ĠPutih": 4717,
      "Ġtangisi": 4718,
      "Ġpusara": 4719,
      "Ġketenangan": 4720,
      "ĠPutra": 4721,
      "ĠPuteri": 4722,
      "Ġmengenal": 4723,
      "Ġdemo": 4724,
      "ossfire": 4725,
      "Ġkemudian": 4726,
      "Ġmenyiksakan": 4727,
      "Ġpemisah": 4728,
      "ĠZainuddin": 4729,
      "Ġpembela": 4730,
      "ĠSafar": 4731,
      "Ġjejaki": 4732,
      "Ġpinggir": 4733,
      "ĠTabah": 4734,
      "Ġternoda": 4735,
      "ĠRabiulawal": 4736,
      "mark": 4737,
      "ĠTahukah": 4738,
      "ĠMuharam": 4739,
      "ampirinya": 4740,
      "ĠReal": 4741,
      "ĠBercanda": 4742,
      "Ġsemesta": 4743,
      "Ġmemikirkan": 4744,
      "ĠAnggap": 4745,
      "ĠMenyayangi": 4746,
      "teen": 4747,
      "Ġkirimkan": 4748,
      "Ġtwo": 4749,
      "ĠMewarnai": 4750,
      "ĠPedihnya": 4751,
      "bahagian": 4752,
      "Ġkasturi": 4753,
      "ĠDemo": 4754,
      "Ġperhubungan": 4755,
      "Ġgenggaman": 4756,
      "Ġbelakang": 4757,
      "Ġkudambakan": 4758,
      "Ġkebahagiaan": 4759,
      "Ġbersuara": 4760,
      "empurna": 4761,
      "Ġujian": 4762,
      "Ġtujuan": 4763,
      "Ġbertuah": 4764,
      "irasat": 4765,
      "Ġnever": 4766,
      "Ġlesu": 4767,
      "ĠSemenjak": 4768,
      "Gadisku": 4769,
      "ĠPujaan": 4770,
      "ĠCrossfire": 4771,
      "ĠPerlukah": 4772,
      "Ahmad": 4773,
      "Ashira": 4774,
      "Ġanakanda": 4775,
      "ĠSpider": 4776,
      "ĠBurnmark": 4777,
      "Ġlamunan": 4778,
      "rimadona": 4779,
      "ĠRejab": 4780,
      "ĠFahamilah": 4781,
      "201": 4782,
      "Aku": 4783,
      "Eddie": 4784,
      "Ing": 4785,
      "One": 4786,
      "Waris": 4787,
      "cah": 4788,
      "curi": 4789,
      "dangan": 4790,
      "dampar": 4791,
      "ff": 4792,
      "face": 4793,
      "hen": 4794,
      "hur": 4795,
      "hed": 4796,
      "hluk": 4797,
      "jangan": 4798,
      "juna": 4799,
      "kface": 4800,
      "langkah": 4801,
      "lunya": 4802,
      "lanjur": 4803,
      "masih": 4804,
      "olak": 4805,
      "ue": 4806,
      "wow": 4807,
      "yeah": 4808,
      "Ġim": 4809,
      "anan": 4810,
      "erla": 4811,
      "erat": 4812,
      "erja": 4813,
      "eringan": 4814,
      "erangkap": 4815,
      "Ġkak": 4816,
      "Ġkalah": 4817,
      "Ġkito": 4818,
      "Ġkayangan": 4819,
      "angsa": 4820,
      "Ġmin": 4821,
      "Ġsin": 4822,
      "Ġsuk": 4823,
      "Ġsus": 4824,
      "Ġsum": 4825,
      "Ġsawah": 4826,
      "Ġsingk": 4827,
      "Ġduhai": 4828,
      "Ġbanta": 4829,
      "Ġbapak": 4830,
      "Ġbakar": 4831,
      "Ġbaju": 4832,
      "kus": 4833,
      "are": 4834,
      "ahang": 4835,
      "ahagia": 4836,
      "tir": 4837,
      "Ġpo": 4838,
      "Ġped": 4839,
      "Ġpatut": 4840,
      "Ġher": 4841,
      "Ġhutan": 4842,
      "Ġhantar": 4843,
      "ĠKeta": 4844,
      "ĠKenang": 4845,
      "ĠKembara": 4846,
      "asir": 4847,
      "Ġtok": 4848,
      "unkface": 4849,
      "ĠTari": 4850,
      "ĠTidu": 4851,
      "ĠTomok": 4852,
      "ĠTinggi": 4853,
      "Ġsetang": 4854,
      "Ġsesi": 4855,
      "Ġsetahun": 4856,
      "Ġsebab": 4857,
      "Ġsetulus": 4858,
      "ĠAyam": 4859,
      "ĠAlasan": 4860,
      "ĠAjar": 4861,
      "ĠSp": 4862,
      "ĠSini": 4863,
      "ĠSisa": 4864,
      "ĠSimpan": 4865,
      "atlah": 4866,
      "athan": 4867,
      "Ġagung": 4868,
      "Ġabaikan": 4869,
      "Ġberl": 4870,
      "Ġberbahagia": 4871,
      "Ġberpunya": 4872,
      "ĠMo": 4873,
      "ĠMin": 4874,
      "ĠMed": 4875,
      "ĠMaz": 4876,
      "amlah": 4877,
      "ambu": 4878,
      "ammad": 4879,
      "amitku": 4880,
      "ĠBak": 4881,
      "ĠBil": 4882,
      "ĠBapa": 4883,
      "ĠBunkface": 4884,
      "ĠDar": 4885,
      "ĠDim": 4886,
      "ĠDuka": 4887,
      "ĠDuga": 4888,
      "ĠDef": 4889,
      "ĠDog": 4890,
      "Ġjiran": 4891,
      "Ġjemari": 4892,
      "ape": 4893,
      "iramu": 4894,
      "Ġtadi": 4895,
      "Ġtawan": 4896,
      "Ġterlu": 4897,
      "Ġterbawa": 4898,
      "Ġtertulis": 4899,
      "ation": 4900,
      "atimah": 4901,
      "Ġred": 4902,
      "Ġmencipta": 4903,
      "Ġmenilai": 4904,
      "isang": 4905,
      "istimewa": 4906,
      "Ġkeadaan": 4907,
      "ĠHang": 4908,
      "Ġakui": 4909,
      "gaimana": 4910,
      "Ġcintai": 4911,
      "ĠSewaktu": 4912,
      "ĠSekuat": 4913,
      "..)": 4914,
      "Ġperi": 4915,
      "Ġperlahan": 4916,
      "tua": 4917,
      "tut": 4918,
      "ĠPun": 4919,
      "ĠPagi": 4920,
      "ĠPohon": 4921,
      "ĠPatah": 4922,
      "ajat": 4923,
      "embok": 4924,
      "ĠJumpa": 4925,
      "ĠKui": 4926,
      "Ġow": 4927,
      "ĠRaja": 4928,
      "ell": 4929,
      "ĠCar": 4930,
      "Ġmengisi": 4931,
      "Ġmengaku": 4932,
      "Ġmengubah": 4933,
      "Ġmengambil": 4934,
      "Ġlike": 4935,
      "Ġbersih": 4936,
      "ont": 4937,
      "ĠBerapa": 4938,
      "ĠBerilah": 4939,
      "ess": 4940,
      "bagaimana": 4941,
      "ĠNaluri": 4942,
      "ĠNathan": 4943,
      "ekerja": 4944,
      "Ġgoncang": 4945,
      "Ġgetaran": 4946,
      "its": 4947,
      "ĠMentari": 4948,
      "ĠMentor": 4949,
      "ĠMenambah": 4950,
      "Ġbujang": 4951,
      "Ġteh": 4952,
      "Ġtego": 4953,
      "Ġkasihi": 4954,
      "Ġsenjata": 4955,
      "anjikan": 4956,
      "Ġsubur": 4957,
      "abatan": 4958,
      "Ġmerenung": 4959,
      "Ġmerestui": 4960,
      "Ġmerdeka": 4961,
      "naf": 4962,
      "ĠArah": 4963,
      "Ġrasaku": 4964,
      "Ġigau": 4965,
      "ĠMengg": 4966,
      "agiamu": 4967,
      "Ġmembuktikan": 4968,
      "Ġmembunuh": 4969,
      "macam": 4970,
      "Ġrindukan": 4971,
      "utkan": 4972,
      "Ġtiadamu": 4973,
      "ĠKereta": 4974,
      "andra": 4975,
      "Ġsematkan": 4976,
      "orong": 4977,
      "ormat": 4978,
      "Ġmemadu": 4979,
      "Ġmemilih": 4980,
      "Ġmemiliki": 4981,
      "afa": 4982,
      "Ġpenj": 4983,
      "dirian": 4984,
      "epak": 4985,
      "epis": 4986,
      "Ġsiapakah": 4987,
      "ĠPeritnya": 4988,
      "awat": 4989,
      "awanku": 4990,
      "Ġluput": 4991,
      "edarkan": 4992,
      "Ġmenghina": 4993,
      "Ġmenghampiri": 4994,
      "Ġmenghampirinya": 4995,
      "ohong": 4996,
      "okok": 4997,
      "dipan": 4998,
      "Ġsekeping": 4999,
      "reak": 5000,
      "Ġseru": 5001,
      "Ġbilakah": 5002,
      "ĠSemangat": 5003,
      "ĠSemalaman": 5004,
      "Ġterpenjara": 5005,
      "ĠKej": 5006,
      "Ġberjuang": 5007,
      "elahirkan": 5008,
      "ĠFaiz": 5009,
      "ĠFatimah": 5010,
      "Ġmasalah": 5011,
      "Ġhilanglah": 5012,
      "ĠEngkaukah": 5013,
      "Ġberpaut": 5014,
      "ose": 5015,
      "ĠSemusim": 5016,
      "Ġterbiar": 5017,
      "Ġterbenam": 5018,
      "ĠAsmi": 5019,
      "ĠAsfan": 5020,
      "Ġberde": 5021,
      "Ġyaw": 5022,
      "oie": 5023,
      "Ġberkembang": 5024,
      "Ġkehancuran": 5025,
      "ĠMerdeka": 5026,
      "Ġdup": 5027,
      "Ġsaatnya": 5028,
      "hariku": 5029,
      "jual": 5030,
      "usiaan": 5031,
      "ĠMemori": 5032,
      "Ġaduhai": 5033,
      "Ġberbunyi": 5034,
      "Ġmendapat": 5035,
      "Ġmendampingi": 5036,
      "Ġsejahtera": 5037,
      "Ġsisimu": 5038,
      "legar": 5039,
      "Ġsesali": 5040,
      "Ġberguna": 5041,
      "Ġbergelora": 5042,
      "siakan": 5043,
      "Ġbelajar": 5044,
      "ĠJadilah": 5045,
      "Ġkhianati": 5046,
      "Ġpegang": 5047,
      "Ġmelawan": 5048,
      "ancurkan": 5049,
      "ĠSesama": 5050,
      "yahdu": 5051,
      "Ġgundah": 5052,
      "Ġhiburan": 5053,
      "isten": 5054,
      "umpang": 5055,
      "Ġmakhluk": 5056,
      "ĠRasakan": 5057,
      "engkapkan": 5058,
      "Ġtemani": 5059,
      "Ġfikiranku": 5060,
      "Ġmencabar": 5061,
      "ĠDahulu": 5062,
      "ĠKesedihan": 5063,
      "gori": 5064,
      "Ġlihatlah": 5065,
      "Ġmenghargai": 5066,
      "tolak": 5067,
      "ĠShila": 5068,
      "guris": 5069,
      "ĠBahtera": 5070,
      "Ġpersimpangan": 5071,
      "Ġsanggupku": 5072,
      "Ġmenerim": 5073,
      "Ġgerangan": 5074,
      "Ġnafasmu": 5075,
      "inggir": 5076,
      "rahim": 5077,
      "ĠPergilah": 5078,
      "aaaa": 5079,
      "ĠMesti": 5080,
      "ĠRambut": 5081,
      "ĠRamlie": 5082,
      "Ġmuslimah": 5083,
      "ĠKehangatan": 5084,
      "Ġselera": 5085,
      "ĠMuda": 5086,
      "Ġkayo": 5087,
      "Ġkebenar": 5088,
      "Ġahah": 5089,
      "Ġtelan": 5090,
      "Ġsurat": 5091,
      "Ġbibirmu": 5092,
      "endangan": 5093,
      "ĠSebenar": 5094,
      "ombong": 5095,
      "Ġbayar": 5096,
      "Ġhalus": 5097,
      "Ġguruku": 5098,
      "obak": 5099,
      "Ġsehidup": 5100,
      "ĠKemilau": 5101,
      "Ġboti": 5102,
      "ĠPasrah": 5103,
      "Ġerat": 5104,
      "Ġberharap": 5105,
      "ĠBerdoa": 5106,
      "salahkan": 5107,
      "ĠMenjelma": 5108,
      "Ġterhadapku": 5109,
      "Ġmenggamitku": 5110,
      "ĠMenerima": 5111,
      "Ġsakitiku": 5112,
      "ĠAmpunilah": 5113,
      "Ġturutkan": 5114,
      "Ġdoakan": 5115,
      "Ġdestinasi": 5116,
      "Ġmeninggalkanmu": 5117,
      "Ġlukis": 5118,
      "ĠIzinkanlah": 5119,
      "ĠDisini": 5120,
      "Ġkunci": 5121,
      "Ġlalalalala": 5122,
      "Ġberterbangan": 5123,
      "ĠAboi": 5124,
      "Ġjelita": 5125,
      "Ġsetengah": 5126,
      "ĠZulkai": 5127,
      "Ġtemanku": 5128,
      "ĠBelantara": 5129,
      "ĠBone": 5130,
      "Ġrendah": 5131,
      "Ġrajaku": 5132,
      "Ġtitisan": 5133,
      "ĠRabiulakhir": 5134,
      "Ġtubuhku": 5135,
      "Ġperhatikan": 5136,
      "ĠJamadilawal": 5137,
      "ĠJamadilakhir": 5138,
      "Ġtuliskan": 5139,
      "Ġtercabar": 5140,
      "ĠKecewa": 5141,
      "Ġpangkuan": 5142,
      "Ġawangan": 5143,
      "ĠSedarlah": 5144,
      "Ġmengundi": 5145,
      "Ġcahya": 5146,
      "Ġsilap": 5147,
      "ĠSukarnya": 5148,
      "gulung": 5149,
      "ĠAdiwiramu": 5150,
      "Ġdurjana": 5151,
      "ĠHendakku": 5152,
      "guguran": 5153,
      "ĠPilu": 5154,
      "ĠEmas": 5155,
      "Ġfitrah": 5156,
      "ĠForteen": 5157,
      "Ġpengertian": 5158,
      "Ġmendaki": 5159,
      "Ġmungkiri": 5160,
      "Ġmenimpa": 5161,
      "ungguk": 5162,
      "ĠPaksakan": 5163,
      "ĠCintanya": 5164,
      "ĠDibuai": 5165,
      "ĠWithout": 5166,
      "ĠEmbun": 5167,
      "Ġdisampingku": 5168,
      "ĠTidur": 5169,
      "Ġsesiapa": 5170,
      "ĠAjarku": 5171,
      "ĠBapaku": 5172,
      "ĠDugaan": 5173,
      "Ġredha": 5174,
      "ĠAsmidar": 5175,
      "ĠZulkaidah": 5176,
      "Allah": 5177,
      "Dalam": 5178,
      "Er": 5179,
      "Oh": 5180,
      "Roh": 5181,
      "Ramlah": 5182,
      "Stacy": 5183,
      "Tomok": 5184,
      "bung": 5185,
      "bor": 5186,
      "car": 5187,
      "cinya": 5188,
      "cuma": 5189,
      "dia": 5190,
      "fik": 5191,
      "hanya": 5192,
      "ibah": 5193,
      "ll": 5194,
      "lih": 5195,
      "lia": 5196,
      "lina": 5197,
      "men": 5198,
      "masa": 5199,
      "millah": 5200,
      "padan": 5201,
      "qas": 5202,
      "ramu": 5203,
      "senang": 5204,
      "tana": 5205,
      "yung": 5206,
      "ysia": 5207,
      "Ġak": 5208,
      "Ġarang": 5209,
      "Ġiring": 5210,
      "Ġulangi": 5211,
      "ano": 5212,
      "erk": 5213,
      "ergi": 5214,
      "eraka": 5215,
      "erhana": 5216,
      "Ġkah": 5217,
      "lafazkan": 5218,
      "takut": 5219,
      "insa": 5220,
      "enek": 5221,
      "enter": 5222,
      "enuhi": 5223,
      "Ġmaju": 5224,
      "Ġmangsa": 5225,
      "Ġsh": 5226,
      "Ġst": 5227,
      "Ġsia": 5228,
      "Ġsapa": 5229,
      "Ġdre": 5230,
      "Ġdebaran": 5231,
      "Ġbus": 5232,
      "Ġbong": 5233,
      "Ġbangkit": 5234,
      "Ġbalas": 5235,
      "Ġbekerja": 5236,
      "kul": 5237,
      "arti": 5238,
      "arlah": 5239,
      "Ġpad": 5240,
      "Ġpaksa": 5241,
      "Ġpungguk": 5242,
      "kanya": 5243,
      "kandung": 5244,
      "Ġhaa": 5245,
      "Ġhubungan": 5246,
      "Ġhukum": 5247,
      "Ġhaluan": 5248,
      "ĠKL": 5249,
      "ĠKed": 5250,
      "ĠKira": 5251,
      "ĠKebah": 5252,
      "ĠKaram": 5253,
      "Ġtanggung": 5254,
      "Ġtembus": 5255,
      "Ġtangkai": 5256,
      "aduh": 5257,
      "adapan": 5258,
      "unda": 5259,
      "aus": 5260,
      "aukan": 5261,
      "akkan": 5262,
      "Ġdicinta": 5263,
      "Ġdiuji": 5264,
      "Ġdibawa": 5265,
      "Ġditolak": 5266,
      "ĠTahir": 5267,
      "Ġseakan": 5268,
      "Ġsepatah": 5269,
      "ĠAwan": 5270,
      "ĠAiz": 5271,
      "ĠSentu": 5272,
      "ĠSambut": 5273,
      "ĠSaban": 5274,
      "ĠSempurna": 5275,
      "atus": 5276,
      "Ġberangan": 5277,
      "Ġberulang": 5278,
      "Ġberdiam": 5279,
      "Ġberwarna": 5280,
      "Ġberarti": 5281,
      "ĠMaj": 5282,
      "ĠMon": 5283,
      "ĠMamp": 5284,
      "ĠMalik": 5285,
      "ĠMedu": 5286,
      "ĠBo": 5287,
      "ĠBati": 5288,
      "ĠBaiz": 5289,
      "all": 5290,
      "alus": 5291,
      "alut": 5292,
      "ĠDat": 5293,
      "ĠDam": 5294,
      "ĠDih": 5295,
      "ĠDri": 5296,
      "ĠDej": 5297,
      "ĠDrama": 5298,
      "Ġcela": 5299,
      "Ġcapai": 5300,
      "alar": 5301,
      "Ġje": 5302,
      "Ġjasa": 5303,
      "apo": 5304,
      "apati": 5305,
      "apung": 5306,
      "irullah": 5307,
      "Ġtal": 5308,
      "Ġtar": 5309,
      "Ġtaburkan": 5310,
      "Ġterla": 5311,
      "Ġteruna": 5312,
      "Ġterkunci": 5313,
      "Ġtertutup": 5314,
      "Ġteristimewa": 5315,
      "luan": 5316,
      "Ġraj": 5317,
      "Ġracun": 5318,
      "Ġruntuh": 5319,
      "Ġmens": 5320,
      "Ġmenak": 5321,
      "Ġmenyang": 5322,
      "Ġmenempuhi": 5323,
      "Ġmenempuh": 5324,
      "Ġmenikam": 5325,
      "Ġketer": 5326,
      "Ġlawa": 5327,
      "Ġlayan": 5328,
      "ĠHampa": 5329,
      "ĠHaa": 5330,
      "ĠHampir": 5331,
      "dulu": 5332,
      "dusta": 5333,
      "ingatan": 5334,
      "itasi": 5335,
      "payar": 5336,
      "Ġperbu": 5337,
      "Ġperginya": 5338,
      "rian": 5339,
      "Ġnis": 5340,
      "Ġnot": 5341,
      "Ġneraka": 5342,
      "ĠPela": 5343,
      "ĠPud": 5344,
      "ĠLembut": 5345,
      "ĠLemah": 5346,
      "ĠLambang": 5347,
      "ĠListen": 5348,
      "atam": 5349,
      "atapi": 5350,
      "embaran": 5351,
      "ĠJoh": 5352,
      "ĠJamb": 5353,
      "ĠJuw": 5354,
      "ĠKuasa": 5355,
      "Ġoghang": 5356,
      "Ġomak": 5357,
      "ĠRem": 5358,
      "ĠRupa": 5359,
      "ĠRebah": 5360,
      "ella": 5361,
      "elisah": 5362,
      "urang": 5363,
      "urus": 5364,
      "urahkan": 5365,
      "adiah": 5366,
      "ĠCik": 5367,
      "ĠCantik": 5368,
      "piluan": 5369,
      "Ġmengganti": 5370,
      "Ġmenguji": 5371,
      "Ġli": 5372,
      "Ġlen": 5373,
      "Ġlom": 5374,
      "Ġlenyap": 5375,
      "Ġlebur": 5376,
      "Ġtigo": 5377,
      "Ġtitian": 5378,
      "ĠIkut": 5379,
      "ĠIllah": 5380,
      "ayalan": 5381,
      "ĠBerter": 5382,
      "ĠBernyawa": 5383,
      "ĠBerkurun": 5384,
      "ĠBeraneka": 5385,
      "ĠDip": 5386,
      "Ġwujud": 5387,
      "Ġwanted": 5388,
      "Ġwarkah": 5389,
      "esat": 5390,
      "esali": 5391,
      "ĠBijak": 5392,
      "ĠLayu": 5393,
      "ĠTerakhir": 5394,
      "ĠNing": 5395,
      "ĠNyet": 5396,
      "ĠNekad": 5397,
      "ekasih": 5398,
      "ekali": 5399,
      "ĠMenentukan": 5400,
      "Ġbuaya": 5401,
      "lambung": 5402,
      "ĠWe": 5403,
      "Ġsemut": 5404,
      "ocak": 5405,
      "ĠUng": 5406,
      "ĠUcap": 5407,
      "Ġmerdu": 5408,
      "Ġmerubah": 5409,
      "ĠTitis": 5410,
      "ragu": 5411,
      "ĠMengenang": 5412,
      "ĠMengira": 5413,
      "ĠMengejar": 5414,
      "ĠMengenal": 5415,
      "ĠGun": 5416,
      "ĠGunung": 5417,
      "Ġmembisik": 5418,
      "Ġmembelai": 5419,
      "main": 5420,
      "makan": 5421,
      "ĠEddie": 5422,
      "âĢ¦.": 5423,
      "ĠKering": 5424,
      "ĠKerinduan": 5425,
      "andy": 5426,
      "andarkan": 5427,
      "Ġsemai": 5428,
      "Ġsembi": 5429,
      "Ġsemaikan": 5430,
      "Ġseminit": 5431,
      "Ġmuch": 5432,
      "ore": 5433,
      "eban": 5434,
      "Ġmemiku": 5435,
      "Ġmemendam": 5436,
      "Ġkerj": 5437,
      "Ġkeriangan": 5438,
      "afir": 5439,
      "Ġpening": 5440,
      "Ġpenantian": 5441,
      "Ġpendirian": 5442,
      "yuan": 5443,
      "ĠAndang": 5444,
      "ĠPertemuan": 5445,
      "awak": 5446,
      "emuk": 5447,
      "Ġkenangi": 5448,
      "Ġmenyimpan": 5449,
      "Ġmenghitung": 5450,
      "ampaan": 5451,
      "Ġkepahit": 5452,
      "Ġkepedihan": 5453,
      "emparkan": 5454,
      "Ġsay": 5455,
      "Ġkekeringan": 5456,
      "Ġterperangkap": 5457,
      "Ġtersilap": 5458,
      "Ġtersungkur": 5459,
      "enangi": 5460,
      "ĠKeindahan": 5461,
      "ilas": 5462,
      "Ġkesampai": 5463,
      "Ġkesedihan": 5464,
      "Ġkesilapan": 5465,
      "Ġkesudahan": 5466,
      "ack": 5467,
      "Ġberputus": 5468,
      "Ġputar": 5469,
      "Ġindahmu": 5470,
      "Ġtinggallah": 5471,
      "Ġdisakiti": 5472,
      "Ġdisebalik": 5473,
      "osak": 5474,
      "Ġbiarkanlah": 5475,
      "carian": 5476,
      "eji": 5477,
      "ejuk": 5478,
      "Ġpenghar": 5479,
      "Ġpengubat": 5480,
      "Ġpenghibur": 5481,
      "Ġpenglipur": 5482,
      "Ġuuu": 5483,
      "Ġucapan": 5484,
      "ĠPend": 5485,
      "Ġterlepas": 5486,
      "Ġterlerai": 5487,
      "Ġbaiduri": 5488,
      "sifat": 5489,
      "ĠMembakar": 5490,
      "ĠIngatkan": 5491,
      "Ġberdebar": 5492,
      "Ġbuatmu": 5493,
      "ĠBersabar": 5494,
      "ĠBersinar": 5495,
      "ĠBersyukur": 5496,
      "ĠBersemadi": 5497,
      "etir": 5498,
      "Ġkehangatan": 5499,
      "ĠMerana": 5500,
      "ancak": 5501,
      "Ġwajahnya": 5502,
      "ĠTidaklah": 5503,
      "Ġcubalah": 5504,
      "ewat": 5505,
      "ĠHidupmu": 5506,
      "Ġsenyumlah": 5507,
      "ĠPadaku": 5508,
      "Ġadat": 5509,
      "Ġkecundang": 5510,
      "sahabatan": 5511,
      "unyian": 5512,
      "anting": 5513,
      "ambat": 5514,
      "Ġsejak": 5515,
      "Ġmenunggumu": 5516,
      "hanyut": 5517,
      "Ġpujangga": 5518,
      "ĠKenyataan": 5519,
      "ĠAmir": 5520,
      "ĠAmanda": 5521,
      "Ġkhas": 5522,
      "Ġbungaku": 5523,
      "iksaan": 5524,
      "Ġterhi": 5525,
      "Ġterhapus": 5526,
      "izan": 5527,
      "Ġbelenggu": 5528,
      "Ġmerinduimu": 5529,
      "Ġpasal": 5530,
      "Ġmakn": 5531,
      "engkap": 5532,
      "Ġbayanganmu": 5533,
      "ĠMenyesal": 5534,
      "Ġmencintaiku": 5535,
      "Ġterkilan": 5536,
      "Ġmeyakin": 5537,
      "ĠBetul": 5538,
      "impin": 5539,
      "Ġmanismu": 5540,
      "ĠHarusnya": 5541,
      "ĠAzlina": 5542,
      "ghi": 5543,
      "ĠBisakah": 5544,
      "Ġrahsi": 5545,
      "ĠSejauh": 5546,
      "Ġsalahkah": 5547,
      "Ġkemarau": 5548,
      "inggahan": 5549,
      "Ġbercanda": 5550,
      "ĠTerbit": 5551,
      "Ġdaun": 5552,
      "Ġmusafir": 5553,
      "Ġhancurkan": 5554,
      "ĠSerahkan": 5555,
      "antum": 5556,
      "Ġpesta": 5557,
      "ĠKehidupan": 5558,
      "ĠDikala": 5559,
      "Ġkain": 5560,
      "ĠMelayarkan": 5561,
      "ĠKepadaku": 5562,
      "ĠBayanganmu": 5563,
      "Ġbermaaf": 5564,
      "tuskan": 5565,
      "betul": 5566,
      "Ġdosaku": 5567,
      "ĠMasirah": 5568,
      "Ġkegelisah": 5569,
      "Ġmelupakanmu": 5570,
      "Ġarus": 5571,
      "embunyikan": 5572,
      "ĠRahmat": 5573,
      "Ġmenghibur": 5574,
      "agungan": 5575,
      "Ġbidadariku": 5576,
      "Ġangkara": 5577,
      "Ġputera": 5578,
      "Ġsehaluan": 5579,
      "Ġselalunya": 5580,
      "irkannya": 5581,
      "ĠNyawa": 5582,
      "ĠNyalakan": 5583,
      "Ġcukuplah": 5584,
      "Ġkehadiranku": 5585,
      "Ġciptakan": 5586,
      "ĠMenghilang": 5587,
      "ĠHiburkan": 5588,
      "Ġbesi": 5589,
      "ĠTerluka": 5590,
      "Ġpenyiksaan": 5591,
      "Ġmenyintaimu": 5592,
      "ecai": 5593,
      "ĠFikirkan": 5594,
      "ĠKhabar": 5595,
      "ĠAirmata": 5596,
      "efree": 5597,
      "Ġtertunggu": 5598,
      "Ġtaufan": 5599,
      "Ġpipit": 5600,
      "ĠSale": 5601,
      "ĠSalju": 5602,
      "Ġpermaisuri": 5603,
      "ĠMembuatkan": 5604,
      "ĠRafeah": 5605,
      "ĠBerbisik": 5606,
      "ĠGerak": 5607,
      "ĠGerhana": 5608,
      "Ġmaksudku": 5609,
      "Ġdidalam": 5610,
      "ĠIstana": 5611,
      "Ġidamkan": 5612,
      "Ġempayar": 5613,
      "Ġkabur": 5614,
      "asangka": 5615,
      "Ġpenderitaan": 5616,
      "ĠMizan": 5617,
      "Ġmenatapku": 5618,
      "ajipan": 5619,
      "ĠDegup": 5620,
      "Ġbelaianmu": 5621,
      "Ġkawin": 5622,
      "ĠMuhammad": 5623,
      "Ġcobaan": 5624,
      "ĠHapuskan": 5625,
      "ĠLafazkanlah": 5626,
      "ĠMenghias": 5627,
      "Ġpanggil": 5628,
      "Ġpemuda": 5629,
      "Ġditerima": 5630,
      "esraan": 5631,
      "Ġkesetiaan": 5632,
      "Ġzahirnya": 5633,
      "ĠBerlari": 5634,
      "Ġsuluhkan": 5635,
      "maafan": 5636,
      "ĠKehadiranmu": 5637,
      "Ġmendustai": 5638,
      "Ġkemanusiaan": 5639,
      "ĠBelaian": 5640,
      "ĠLepaskanlah": 5641,
      "ormati": 5642,
      "Ġdihargai": 5643,
      "ĠTeguh": 5644,
      "ĠTaufik": 5645,
      "ĠAjai": 5646,
      "ĠCitarasa": 5647,
      "ĠCome": 5648,
      "Ġmempersona": 5649,
      "Ġfrom": 5650,
      "Rafeah": 5651,
      "Ġsebutir": 5652,
      "Ġkewajipan": 5653,
      "Ġkepayang": 5654,
      "ĠLambaian": 5655,
      "ĠMenemani": 5656,
      "Ġmemaafkan": 5657,
      "ĠCarefree": 5658,
      "ĠFaizal": 5659,
      "Rohana": 5660,
      "qasha": 5661,
      "Ġdream": 5662,
      "ĠAizat": 5663,
      "ĠSentuhan": 5664,
      "ĠMedusa": 5665,
      "ĠBatisah": 5666,
      "ĠBaizura": 5667,
      "ĠJuwita": 5668,
      "ĠIllahi": 5669,
      "Ġsembilu": 5670,
      "Ġmemikul": 5671,
      "Ġkepahitan": 5672,
      "Ġkesampaian": 5673,
      "Ġmeyakinkan": 5674,
      "Ġkegelisahan": 5675,
      "?)": 5676,
      "Al": 5677,
      "Awi": 5678,
      "Lari": 5679,
      "Masih": 5680,
      "bak": 5681,
      "benar": 5682,
      "cung": 5683,
      "fo": 5684,
      "gama": 5685,
      "hu": 5686,
      "hnya": 5687,
      "hlak": 5688,
      "ibir": 5689,
      "jab": 5690,
      "jemu": 5691,
      "kawan": 5692,
      "loo": 5693,
      "mba": 5694,
      "mbang": 5695,
      "oka": 5696,
      "ppo": 5697,
      "que": 5698,
      "rupanya": 5699,
      "sang": 5700,
      "satu": 5701,
      "suan": 5702,
      "sedih": 5703,
      "shah": 5704,
      "sirkannya": 5705,
      "ts": 5706,
      "tra": 5707,
      "tunggu": 5708,
      "tosa": 5709,
      "teki": 5710,
      "uar": 5711,
      "war": 5712,
      "yari": 5713,
      "zir": 5714,
      "zakan": 5715,
      "Ġ6": 5716,
      "Ġ7": 5717,
      "eritan": 5718,
      "ernih": 5719,
      "Ġkalam": 5720,
      "Ġkemb": 5721,
      "Ġkoc": 5722,
      "Ġkapan": 5723,
      "Ġkadang": 5724,
      "Ġkilauan": 5725,
      "enta": 5726,
      "Ġmo": 5727,
      "Ġmala": 5728,
      "Ġmilah": 5729,
      "Ġmaut": 5730,
      "Ġmonggol": 5731,
      "Ġmelahirkan": 5732,
      "Ġsam": 5733,
      "Ġsunga": 5734,
      "Ġsaban": 5735,
      "Ġsyukuri": 5736,
      "Ġdeng": 5737,
      "Ġdek": 5738,
      "Ġdaki": 5739,
      "Ġderas": 5740,
      "kuti": 5741,
      "kulai": 5742,
      "arga": 5743,
      "ahari": 5744,
      "ahter": 5745,
      "tiada": 5746,
      "Ġpin": 5747,
      "Ġpetik": 5748,
      "Ġpadan": 5749,
      "Ġpadang": 5750,
      "Ġpadam": 5751,
      "Ġpappa": 5752,
      "Ġpisang": 5753,
      "Ġhantu": 5754,
      "Ġhapus": 5755,
      "ĠKar": 5756,
      "ĠKad": 5757,
      "ĠKuk": 5758,
      "ĠKab": 5759,
      "ĠKeb": 5760,
      "ĠKok": 5761,
      "ĠKac": 5762,
      "ĠKacam": 5763,
      "ĠKato": 5764,
      "asing": 5765,
      "asari": 5766,
      "asuh": 5767,
      "Ġtong": 5768,
      "Ġteka": 5769,
      "Ġtutup": 5770,
      "aknya": 5771,
      "Ġdilu": 5772,
      "Ġdimata": 5773,
      "Ġdiduga": 5774,
      "Ġdimakan": 5775,
      "Ġdihanyut": 5776,
      "ĠTep": 5777,
      "ĠTaman": 5778,
      "ĠTuju": 5779,
      "ĠTunduk": 5780,
      "ĠTyp": 5781,
      "Ġsehari": 5782,
      "Ġsehati": 5783,
      "Ġsetara": 5784,
      "Ġselas": 5785,
      "Ġseirama": 5786,
      "Ġseikhlas": 5787,
      "Ġsekuntum": 5788,
      "ĠAbang": 5789,
      "ĠAeman": 5790,
      "ĠAyah": 5791,
      "ĠAuu": 5792,
      "ĠSir": 5793,
      "ĠSana": 5794,
      "ĠSab": 5795,
      "ĠSol": 5796,
      "ĠSila": 5797,
      "ĠSona": 5798,
      "ĠSyam": 5799,
      "ĠSyukur": 5800,
      "ĠSambil": 5801,
      "atur": 5802,
      "Ġati": 5803,
      "Ġaga": 5804,
      "Ġatasi": 5805,
      "Ġagama": 5806,
      "Ġberbah": 5807,
      "Ġberisi": 5808,
      "Ġberhari": 5809,
      "Ġbermad": 5810,
      "Ġberbagai": 5811,
      "Ġberfikir": 5812,
      "Ġberwajah": 5813,
      "ĠMy": 5814,
      "ĠMau": 5815,
      "ĠMemp": 5816,
      "ĠMelu": 5817,
      "ĠMohon": 5818,
      "engang": 5819,
      "Ġkuk": 5820,
      "Ġkutu": 5821,
      "Ġkuatkan": 5822,
      "Ġkukuh": 5823,
      "laha": 5824,
      "lahmu": 5825,
      "ĠBek": 5826,
      "ĠBadai": 5827,
      "ĠBakal": 5828,
      "ĠBloo": 5829,
      "albu": 5830,
      "alinkan": 5831,
      "alsuan": 5832,
      "ĠDin": 5833,
      "ĠDen": 5834,
      "ĠDendangan": 5835,
      "Ġcelah": 5836,
      "Ġcall": 5837,
      "intai": 5838,
      "Ġjin": 5839,
      "Ġjol": 5840,
      "Ġjurang": 5841,
      "apu": 5842,
      "Ġtam": 5843,
      "Ġtadah": 5844,
      "Ġtermimpi": 5845,
      "Ġterubat": 5846,
      "Ġterpaku": 5847,
      "Ġterungkap": 5848,
      "lui": 5849,
      "Ġrang": 5850,
      "Ġras": 5851,
      "Ġmenutup": 5852,
      "Ġmenambah": 5853,
      "Ġmenolak": 5854,
      "isnya": 5855,
      "Ġlar": 5856,
      "Ġlater": 5857,
      "Ġlambung": 5858,
      "ĠHembus": 5859,
      "ĠHyp": 5860,
      "Ġakukah": 5861,
      "duan": 5862,
      "ingkuh": 5863,
      "ĠSel": 5864,
      "ĠSeadanya": 5865,
      "ĠSeiring": 5866,
      "ĠSecebis": 5867,
      "ungkan": 5868,
      "Ġperut": 5869,
      "Ġperasan": 5870,
      "Ġpersahabatan": 5871,
      "ikr": 5872,
      "ikasi": 5873,
      "rima": 5874,
      "rifat": 5875,
      "Ġnenek": 5876,
      "ĠPak": 5877,
      "ĠParan": 5878,
      "ĠPanas": 5879,
      "ĠPutus": 5880,
      "ĠPesona": 5881,
      "ĠLari": 5882,
      "ĠLara": 5883,
      "atak": 5884,
      "embuh": 5885,
      "anganmu": 5886,
      "impun": 5887,
      "ĠJej": 5888,
      "ĠJahari": 5889,
      "amaikan": 5890,
      "ĠKupu": 5891,
      "ĠRom": 5892,
      "ĠRaz": 5893,
      "ĠRestu": 5894,
      "ĠRetak": 5895,
      "ĠRob": 5896,
      "ĠRumah": 5897,
      "elia": 5898,
      "ello": 5899,
      "adio": 5900,
      "ĠCi": 5901,
      "ĠCaprice": 5902,
      "pit": 5903,
      "Ġmengembara": 5904,
      "Ġmengubat": 5905,
      "Ġmengulangi": 5906,
      "Ġlirik": 5907,
      "Ġlinangan": 5908,
      "Ġtim": 5909,
      "ĠIf": 5910,
      "ĠItal": 5911,
      "ĠIlahi": 5912,
      "ĠIppo": 5913,
      "Ġbersusah": 5914,
      "Ġbersembunyi": 5915,
      "onara": 5916,
      "ontar": 5917,
      "ayal": 5918,
      "amudera": 5919,
      "ĠBerdiri": 5920,
      "ĠBerka": 5921,
      "ĠBermula": 5922,
      "ĠBerdua": 5923,
      "ĠBerwarna": 5924,
      "ĠBerlinang": 5925,
      "ĠBermain": 5926,
      "ĠDid": 5927,
      "ĠDiganggu": 5928,
      "ĠDiandra": 5929,
      "Ġwor": 5930,
      "esar": 5931,
      "estapa": 5932,
      "ĠOmar": 5933,
      "ĠTerlalu": 5934,
      "ĠTerindah": 5935,
      "ĠTerkubur": 5936,
      "ĠNei": 5937,
      "ĠNyo": 5938,
      "ĠMeni": 5939,
      "ĠMendung": 5940,
      "antikan": 5941,
      "Ġbuah": 5942,
      "idupkan": 5943,
      "Ġbic": 5944,
      "Ġtepu": 5945,
      "Ġtepat": 5946,
      "ĠWa": 5947,
      "ĠWaspada": 5948,
      "Ġsentosa": 5949,
      "agaimanakah": 5950,
      "anjau": 5951,
      "ujuk": 5952,
      "ĠUuu": 5953,
      "Ġmerajuk": 5954,
      "Ġmerantai": 5955,
      "ĠTitian": 5956,
      "ĠArt": 5957,
      "ĠMengajar": 5958,
      "ĠMengalun": 5959,
      "ĠMengiringi": 5960,
      "ĠGaya": 5961,
      "ĠGab": 5962,
      "Ġmembalas": 5963,
      "ngkin": 5964,
      "ampunan": 5965,
      "ĠKernamu": 5966,
      "andar": 5967,
      "ĠdenganMu": 5968,
      "Ġsembah": 5969,
      "Ġsempadan": 5970,
      "Ġmemeluk": 5971,
      "Ġkeruan": 5972,
      "Ġpena": 5973,
      "Ġpenat": 5974,
      "Ġpenjara": 5975,
      "Ġpencarian": 5976,
      "Ġkatak": 5977,
      "Ġmasihku": 5978,
      "Ġbet": 5979,
      "ĠAnuar": 5980,
      "ĠPercintaan": 5981,
      "ĠPerempuan": 5982,
      "ĠPeristiwa": 5983,
      "ĠPercuma": 5984,
      "Ġbahagiamu": 5985,
      "Ġfantasi": 5986,
      "ĠBuah": 5987,
      "Ġingati": 5988,
      "Ġmenyerah": 5989,
      "Ġmenyerikan": 5990,
      "Ġmenyesali": 5991,
      "etah": 5992,
      "Ġlusa": 5993,
      "Ġluhur": 5994,
      "edi": 5995,
      "Ġmano": 5996,
      "Ġmancung": 5997,
      "Ġmenghasai": 5998,
      "Ġkeputu": 5999,
      "Ġkepalsuan": 6000,
      "Ġmelindungi": 6001,
      "Ġmelodi": 6002,
      "antasia": 6003,
      "Ġmimpimu": 6004,
      "Ġmimpikan": 6005,
      "Ġsekak": 6006,
      "Ġsekata": 6007,
      "Ġsekelip": 6008,
      "empas": 6009,
      "emput": 6010,
      "Ġsedalam": 6011,
      "Ġsederhana": 6012,
      "ĠApakan": 6013,
      "ĠApalah": 6014,
      "Ġsangsi": 6015,
      "Ġterpana": 6016,
      "Ġtersedar": 6017,
      "Ġtersimpul": 6018,
      "ĠKeg": 6019,
      "Ġkesana": 6020,
      "Ġkesusah": 6021,
      "Ġkesuma": 6022,
      "Ġkesunyian": 6023,
      "Ġseputih": 6024,
      "ihatan": 6025,
      "Ġpuas": 6026,
      "Ġpukul": 6027,
      "Ġwaktuku": 6028,
      "Ġwaktumu": 6029,
      "Ġtinggalku": 6030,
      "Ġdisel": 6031,
      "Ġdisiksa": 6032,
      "Ġbiarku": 6033,
      "Ġpengemis": 6034,
      "ough": 6035,
      "Ġulahmu": 6036,
      "ĠSayangnya": 6037,
      "ĠPencinta": 6038,
      "Ġterbilang": 6039,
      "Ġterburu": 6040,
      "ĠAlyah": 6041,
      "ĠMembara": 6042,
      "angkala": 6043,
      "Ġjalani": 6044,
      "Ġjalannya": 6045,
      "ĠBersatu": 6046,
      "Ġberkasih": 6047,
      "Ġberkali": 6048,
      "Ġberkelana": 6049,
      "ĠMerasa": 6050,
      "ĠMeronta": 6051,
      "ĠAgarku": 6052,
      "Ġmenjunjung": 6053,
      "ĠMasihku": 6054,
      "ĠSetiamu": 6055,
      "ĠSenja": 6056,
      "ĠSense": 6057,
      "Ġsyarat": 6058,
      "ĠMemikir": 6059,
      "ĠMemadu": 6060,
      "Ġmenyam": 6061,
      "ĠKatamu": 6062,
      "ĠPadaMu": 6063,
      "usaha": 6064,
      "Ġberbaju": 6065,
      "Ġberbisik": 6066,
      "ĠZaman": 6067,
      "Ġmendalam": 6068,
      "Ġmendekat": 6069,
      "Ġdipaksa": 6070,
      "Ġbergembira": 6071,
      "Ġderitaku": 6072,
      "ĠAha": 6073,
      "Ġkoba": 6074,
      "Ġrelakanlah": 6075,
      "kurung": 6076,
      "arkand": 6077,
      "Ġrugi": 6078,
      "Ġgelombang": 6079,
      "Ġmelara": 6080,
      "Ġmelayu": 6081,
      "Ġmelafazkan": 6082,
      "Ġbentang": 6083,
      "Ġmerasai": 6084,
      "ĠMaaflah": 6085,
      "Ġhiaskan": 6086,
      "Ġhiasan": 6087,
      "Ġmerindukanmu": 6088,
      "Ġkelebih": 6089,
      "Ġkelihatan": 6090,
      "taruhkan": 6091,
      "Ġthree": 6092,
      "indari": 6093,
      "indunya": 6094,
      "Ġanugerah": 6095,
      "Ġmencintamu": 6096,
      "Ġterkira": 6097,
      "Ġmencoba": 6098,
      "Ġmegah": 6099,
      "Ġbermaya": 6100,
      "Ġberikanku": 6101,
      "impulan": 6102,
      "Ġmanisnya": 6103,
      "Ġdibelenggu": 6104,
      "Ġdibibir": 6105,
      "ĠKesilapan": 6106,
      "ĠAzian": 6107,
      "ĠAzlan": 6108,
      "ĠAzie": 6109,
      "Ġmulakan": 6110,
      "ĠMano": 6111,
      "ĠManshah": 6112,
      "ĠJanjiku": 6113,
      "Ġmudahnya": 6114,
      "Ġkatanya": 6115,
      "ĠSham": 6116,
      "ĠShake": 6117,
      "ĠSejuk": 6118,
      "ĠSejenak": 6119,
      "ĠSejahter": 6120,
      "ĠKenanganku": 6121,
      "ĠBahawa": 6122,
      "ĠTerpisah": 6123,
      "ĠTerpendam": 6124,
      "ĠTerpadam": 6125,
      "Ġpersenda": 6126,
      "Ġpersinggahan": 6127,
      "Ġmeneruskan": 6128,
      "ĠJauhi": 6129,
      "Ġdirna": 6130,
      "Ġdirestui": 6131,
      "Ġlepaskanlah": 6132,
      "Ġalpa": 6133,
      "Ġanakmu": 6134,
      "emasan": 6135,
      "ĠRamlah": 6136,
      "Ġmaung": 6137,
      "Ġhancurnya": 6138,
      "ĠTeruskanlah": 6139,
      "Ġdadaku": 6140,
      "ĠTetaplah": 6141,
      "Ġkejujur": 6142,
      "Ġairmatamu": 6143,
      "Ġselingkuh": 6144,
      "Ġhakim": 6145,
      "Ġbising": 6146,
      "Ġamarah": 6147,
      "ĠMelayang": 6148,
      "ĠMelainkan": 6149,
      "biarkan": 6150,
      "ĠBayangmu": 6151,
      "unjukkanlah": 6152,
      "Ġsuram": 6153,
      "Ġdaratan": 6154,
      "Ġdarjah": 6155,
      "Ġhamparkan": 6156,
      "Ġdiluka": 6157,
      "Ġingatanku": 6158,
      "Ġnasibmu": 6159,
      "Ġarjuna": 6160,
      "endela": 6161,
      "Ġbiduan": 6162,
      "ĠDikaulah": 6163,
      "ĠResahku": 6164,
      "Ġputri": 6165,
      "Ġsehala": 6166,
      "Ġsehebat": 6167,
      "Ġselautan": 6168,
      "Ġjawapanmu": 6169,
      "Ġkedinginan": 6170,
      "Ġsesuci": 6171,
      "Ġbukakan": 6172,
      "ĠAdanya": 6173,
      "Ġpenghalang": 6174,
      "Ġamboi": 6175,
      "ĠTerlerai": 6176,
      "ĠMenyakiti": 6177,
      "Ġhitamnya": 6178,
      "ĠBagimu": 6179,
      "ĠLalalalalala": 6180,
      "cees": 6181,
      "Ġdihina": 6182,
      "Ġrimb": 6183,
      "ĠKhayalan": 6184,
      "unio": 6185,
      "Ġtertinggal": 6186,
      "ĠSeharum": 6187,
      "Ġmenggapai": 6188,
      "ĠMeneruskan": 6189,
      "Ġyakinkan": 6190,
      "Ġjeritan": 6191,
      "Ġmenyayangimu": 6192,
      "incin": 6193,
      "Ġdopan": 6194,
      "ĠMark": 6195,
      "ĠHakikat": 6196,
      "Ġpermainkan": 6197,
      "Ġberputik": 6198,
      "ĠMalaikat": 6199,
      "ĠSedalam": 6200,
      "ĠSedia": 6201,
      "Ġhasratmu": 6202,
      "ĠKamala": 6203,
      "Ġjambatan": 6204,
      "Ġpengorbananku": 6205,
      "Ġparap": 6206,
      "Ġkemungkin": 6207,
      "Ġhakikatnya": 6208,
      "encian": 6209,
      "ĠTasha": 6210,
      "Ġtermampu": 6211,
      "Ġputeriku": 6212,
      "Ġkarma": 6213,
      "Ġmonyet": 6214,
      "Ġbeban": 6215,
      "Ġpendamkan": 6216,
      "Ġsyukurlah": 6217,
      "Ġpembalasan": 6218,
      "ĠSafuan": 6219,
      "Ġmemujamu": 6220,
      "ĠBonda": 6221,
      "omancinta": 6222,
      "Ġpenghujungnya": 6223,
      "Ġkawe": 6224,
      "ĠKeliru": 6225,
      "ĠMemuja": 6226,
      "ilapanku": 6227,
      "Ġkurniaan": 6228,
      "Ġsyaitan": 6229,
      "ĠHalim": 6230,
      "ĠHalus": 6231,
      "Ġbersendirian": 6232,
      "Ġsemestinya": 6233,
      "Ġsinggahsana": 6234,
      "Ġdapek": 6235,
      "Ġponah": 6236,
      "ĠMisha": 6237,
      "ĠIbrahim": 6238,
      "Ġmengenalimu": 6239,
      "Ġvir": 6240,
      "Ġhembusan": 6241,
      "ĠAtoZ": 6242,
      "ĠAtoz": 6243,
      "ĠSamarkand": 6244,
      "ĠGurau": 6245,
      "ĠGurindam": 6246,
      "Ġpenantianku": 6247,
      "Ġuuuh": 6248,
      "Ġkulitmu": 6249,
      "Ġpotong": 6250,
      "ĠSengsara": 6251,
      "Ġberkuasa": 6252,
      "ĠMilikmu": 6253,
      "Ġremaja": 6254,
      "Ġlewati": 6255,
      "ĠWanita": 6256,
      "ĠPermaisuri": 6257,
      "ĠFazil": 6258,
      "dshed": 6259,
      "Ġhandal": 6260,
      "ĠBangun": 6261,
      "ĠDoaku": 6262,
      "Ġmenafsirkannya": 6263,
      "ĠSeluruh": 6264,
      "ĠLumpur": 6265,
      "Ġtebal": 6266,
      "Ġmelepaskanmu": 6267,
      "Ġsebegini": 6268,
      "Ġkomat": 6269,
      "asutra": 6270,
      "Ġberuntung": 6271,
      "Ġmenemukan": 6272,
      "ĠNyanyian": 6273,
      "Ġgirang": 6274,
      "ĠKesalku": 6275,
      "lanjuranku": 6276,
      "yeahh": 6277,
      "erlapan": 6278,
      "Ġsebabnya": 6279,
      "ĠMeditasi": 6280,
      "ĠMazwan": 6281,
      "ĠPunah": 6282,
      "Ġigauan": 6283,
      "Ġberdegup": 6284,
      "Ġkebenaran": 6285,
      "ĠSebenarnya": 6286,
      "Ġpadamkan": 6287,
      "ĠDatuk": 6288,
      "ĠDamasutra": 6289,
      "Ġnista": 6290,
      "ĠBerterbangan": 6291,
      "ĠNekadku": 6292,
      "ĠBersabarlah": 6293,
      "Altimet": 6294,
      "Ġsungai": 6295,
      "ĠKadangkala": 6296,
      "ĠKacamata": 6297,
      "Ġdihanyutkan": 6298,
      "ĠTypew": 6299,
      "Ġselasih": 6300,
      "Ġagain": 6301,
      "ĠBloodshed": 6302,
      "Ġjolobak": 6303,
      "ĠRomzi": 6304,
      "ĠRazak": 6305,
      "ĠRobbi": 6306,
      "ĠItalia": 6307,
      "ĠNeija": 6308,
      "Ġtepukan": 6309,
      "Ġkeputusan": 6310,
      "Ġkesusahan": 6311,
      "ĠManshahar": 6312,
      "ĠSejahteralah": 6313,
      "Ġselingkuhiku": 6314,
      "Iwan": 6315,
      "Mawi": 6316,
      "Tengku": 6317,
      "Ulang": 6318,
      "You": 6319,
      "agal": 6320,
      "abut": 6321,
      "bau": 6322,
      "bik": 6323,
      "bayang": 6324,
      "bintang": 6325,
      "bungi": 6326,
      "cing": 6327,
      "cuba": 6328,
      "drat": 6329,
      "etang": 6330,
      "eorang": 6331,
      "eve": 6332,
      "gan": 6333,
      "gangan": 6334,
      "gana": 6335,
      "gunya": 6336,
      "gedi": 6337,
      "hayal": 6338,
      "iam": 6339,
      "ick": 6340,
      "juk": 6341,
      "kasih": 6342,
      "kejar": 6343,
      "kota": 6344,
      "my": 6345,
      "meng": 6346,
      "marah": 6347,
      "mandai": 6348,
      "our": 6349,
      "out": 6350,
      "otik": 6351,
      "pak": 6352,
      "pati": 6353,
      "pih": 6354,
      "pon": 6355,
      "pintal": 6356,
      "ranya": 6357,
      "raya": 6358,
      "rella": 6359,
      "rough": 6360,
      "sayang": 6361,
      "syat": 6362,
      "tanda": 6363,
      "tenang": 6364,
      "ukan": 6365,
      "uur": 6366,
      "ucuk": 6367,
      "ucapan": 6368,
      "wat": 6369,
      "xist": 6370,
      "Ġ0": 6371,
      "Ġ`": 6372,
      "Ġiri": 6373,
      "anis": 6374,
      "erm": 6375,
      "erit": 6376,
      "erinya": 6377,
      "lagu": 6378,
      "ladan": 6379,
      "tat": 6380,
      "endah": 6381,
      "enalan": 6382,
      "ensi": 6383,
      "entunya": 6384,
      "Ġmur": 6385,
      "Ġmayat": 6386,
      "Ġmost": 6387,
      "Ġsar": 6388,
      "Ġsamp": 6389,
      "Ġsilih": 6390,
      "Ġdong": 6391,
      "Ġdakap": 6392,
      "Ġdebar": 6393,
      "Ġdunio": 6394,
      "Ġby": 6395,
      "Ġbati": 6396,
      "Ġbapa": 6397,
      "Ġbodoh": 6398,
      "Ġbusuk": 6399,
      "Ġbohong": 6400,
      "Ġback": 6401,
      "Ġbengang": 6402,
      "arisan": 6403,
      "ahut": 6404,
      "tion": 6405,
      "Ġpah": 6406,
      "Ġpadah": 6407,
      "Ġpokok": 6408,
      "yayang": 6409,
      "kanda": 6410,
      "Ġhok": 6411,
      "Ġhindari": 6412,
      "ĠKat": 6413,
      "ĠKap": 6414,
      "ĠKaku": 6415,
      "ĠKru": 6416,
      "ast": 6417,
      "asuk": 6418,
      "asyik": 6419,
      "Ġten": 6420,
      "Ġton": 6421,
      "Ġtek": 6422,
      "Ġtunaikan": 6423,
      "adat": 6424,
      "addi": 6425,
      "adzir": 6426,
      "unnya": 6427,
      "unika": 6428,
      "audara": 6429,
      "Ġdita": 6430,
      "Ġditu": 6431,
      "Ġdikur": 6432,
      "Ġdiusik": 6433,
      "Ġdiulit": 6434,
      "Ġdiatas": 6435,
      "Ġdijual": 6436,
      "Ġdisalahkan": 6437,
      "Ġdikandung": 6438,
      "Ġdiingatan": 6439,
      "ĠTh": 6440,
      "ĠTat": 6441,
      "ĠTur": 6442,
      "ĠTangis": 6443,
      "ĠTutu": 6444,
      "ĠTempuhi": 6445,
      "ĠTempat": 6446,
      "Ġseter": 6447,
      "Ġsedaya": 6448,
      "Ġseutu": 6449,
      "Ġseolah": 6450,
      "Ġsekuat": 6451,
      "Ġsetuju": 6452,
      "ĠAC": 6453,
      "ĠAw": 6454,
      "ĠAyi": 6455,
      "ĠAiman": 6456,
      "ĠAxth": 6457,
      "ĠSas": 6458,
      "ĠSisi": 6459,
      "ĠSenang": 6460,
      "ĠSaling": 6461,
      "ĠSunyi": 6462,
      "ĠSinari": 6463,
      "ĠSikit": 6464,
      "ĠSuluh": 6465,
      "ĠSentuh": 6466,
      "ĠSimpati": 6467,
      "ĠSyahdu": 6468,
      "ĠSaddi": 6469,
      "Ġawal": 6470,
      "Ġajak": 6471,
      "Ġayuh": 6472,
      "Ġberah": 6473,
      "Ġberalah": 6474,
      "Ġbergur": 6475,
      "Ġberirama": 6476,
      "Ġberlin": 6477,
      "Ġbertukar": 6478,
      "ĠMat": 6479,
      "ĠMeman": 6480,
      "ĠManc": 6481,
      "ĠMalang": 6482,
      "ĠMaka": 6483,
      "ĠMisteri": 6484,
      "engsara": 6485,
      "Ġkub": 6486,
      "Ġkubur": 6487,
      "Ġkutip": 6488,
      "Ġkuucapkan": 6489,
      "emat": 6490,
      "emai": 6491,
      "ĠBung": 6492,
      "ĠBayu": 6493,
      "ĠBay": 6494,
      "ĠBreak": 6495,
      "alinya": 6496,
      "albi": 6497,
      "ĠDJ": 6498,
      "ĠDisa": 6499,
      "ĠDud": 6500,
      "ukisan": 6501,
      "Ġjam": 6502,
      "apinya": 6503,
      "iringan": 6504,
      "Ġtajam": 6505,
      "Ġtafs": 6506,
      "Ġterangi": 6507,
      "Ġterganggu": 6508,
      "luar": 6509,
      "Ġrep": 6510,
      "Ġreti": 6511,
      "Ġrantai": 6512,
      "Ġrambut": 6513,
      "Ġrendang": 6514,
      "Ġrare": 6515,
      "Ġrenangi": 6516,
      "Ġrancak": 6517,
      "Ġradio": 6518,
      "Ġranjau": 6519,
      "gilan": 6520,
      "Ġmenyu": 6521,
      "Ġmenentang": 6522,
      "Ġmenenangkan": 6523,
      "Ġmenunjukkan": 6524,
      "Ġkesan": 6525,
      "Ġketara": 6526,
      "Ġkeagungan": 6527,
      "Ġlaman": 6528,
      "Ġlalang": 6529,
      "Ġlayarkan": 6530,
      "ĠHa": 6531,
      "ĠHawa": 6532,
      "ĠHentak": 6533,
      "ĠHulur": 6534,
      "ĠHook": 6535,
      "ĠHikayat": 6536,
      "ĠHajat": 6537,
      "inimu": 6538,
      "Ġcintalah": 6539,
      "ĠSesaat": 6540,
      "ĠSeumpama": 6541,
      "ĠSebab": 6542,
      "Ġperit": 6543,
      "Ġperjalan": 6544,
      "Ġperistiwa": 6545,
      "ikari": 6546,
      "riter": 6547,
      "rime": 6548,
      "Ġny": 6549,
      "Ġnada": 6550,
      "Ġnila": 6551,
      "Ġnangis": 6552,
      "Ġnyet": 6553,
      "Ġnestapa": 6554,
      "Ġnuur": 6555,
      "ĠPang": 6556,
      "ĠPad": 6557,
      "ĠPara": 6558,
      "ĠPeri": 6559,
      "ĠPrimadona": 6560,
      "ĠPahang": 6561,
      "alamanku": 6562,
      "ĠLom": 6563,
      "ĠLena": 6564,
      "ĠLemas": 6565,
      "ĠLuang": 6566,
      "ĠLynn": 6567,
      "ĠLukisan": 6568,
      "ajak": 6569,
      "ajaran": 6570,
      "embahkan": 6571,
      "imi": 6572,
      "immy": 6573,
      "ĠJasad": 6574,
      "ĠJawab": 6575,
      "usry": 6576,
      "ĠKur": 6577,
      "ĠKuat": 6578,
      "ĠKuatkan": 6579,
      "Ġor": 6580,
      "Ġooh": 6581,
      "ĠRes": 6582,
      "day": 6583,
      "urat": 6584,
      "adil": 6585,
      "adiahkan": 6586,
      "ĠCari": 6587,
      "pilih": 6588,
      "Ġmengk": 6589,
      "Ġmengu": 6590,
      "Ġmengada": 6591,
      "Ġmenguj": 6592,
      "Ġmengikat": 6593,
      "Ġmengundang": 6594,
      "Ġmengikut": 6595,
      "Ġmengiringi": 6596,
      "Ġinikah": 6597,
      "Ġleh": 6598,
      "Ġlangs": 6599,
      "Ġlenyapkan": 6600,
      "Ġlimpah": 6601,
      "Ġlemparkan": 6602,
      "Ġtipu": 6603,
      "uhada": 6604,
      "ĠIr": 6605,
      "ĠIam": 6606,
      "ĠIlla": 6607,
      "ĠIlaha": 6608,
      "Ġbersantai": 6609,
      "Ġbersandiwara": 6610,
      "Ġbersaudara": 6611,
      "one": 6612,
      "onn": 6613,
      "onan": 6614,
      "ĠYuna": 6615,
      "ĠBern": 6616,
      "ĠBerta": 6617,
      "ĠBerubah": 6618,
      "ĠBerjalan": 6619,
      "ĠBerbagai": 6620,
      "ĠBerbahagia": 6621,
      "ĠBerarak": 6622,
      "ĠBertukar": 6623,
      "ĠBeritanya": 6624,
      "ĠDiluar": 6625,
      "Ġwake": 6626,
      "Ġwick": 6627,
      "ĠTake": 6628,
      "esa": 6629,
      "esta": 6630,
      "esaran": 6631,
      "ĠBibir": 6632,
      "ĠBidadari": 6633,
      "baits": 6634,
      "ĠLain": 6635,
      "ĠLagenda": 6636,
      "ĠOtak": 6637,
      "ĠOiam": 6638,
      "ĠTerm": 6639,
      "ĠTertutup": 6640,
      "ĠTerpaku": 6641,
      "ĠTeratai": 6642,
      "ĠTertun": 6643,
      "ĠNor": 6644,
      "ĠNos": 6645,
      "ekor": 6646,
      "Ġgemp": 6647,
      "Ġgamb": 6648,
      "Ġgendang": 6649,
      "Ġgaris": 6650,
      "ĠMencipta": 6651,
      "ĠMenempuhi": 6652,
      "ĠMenempuh": 6653,
      "ĠMenepis": 6654,
      "Ġbudaya": 6655,
      "Ġbule": 6656,
      "aid": 6657,
      "ĠWh": 6658,
      "ĠWoh": 6659,
      "Ġkasihnya": 6660,
      "Ġsemudah": 6661,
      "Ġadamu": 6662,
      "Ġsutra": 6663,
      "ĠOhhh": 6664,
      "Ġungu": 6665,
      "ĠUmb": 6666,
      "Ġmerapat": 6667,
      "Ġmeratap": 6668,
      "Ġmeracuni": 6669,
      "Ġmerano": 6670,
      "Ġmerpati": 6671,
      "ragedi": 6672,
      "Ġikuti": 6673,
      "ĠMenger": 6674,
      "ĠMengisi": 6675,
      "ĠMengikat": 6676,
      "impit": 6677,
      "ĠGers": 6678,
      "ĠGho": 6679,
      "ĠGegar": 6680,
      "ĠGagal": 6681,
      "Ġmembela": 6682,
      "Ġmembend": 6683,
      "Ġmembahagia": 6684,
      "ĠExist": 6685,
      "ute": 6686,
      "utang": 6687,
      "Ġhard": 6688,
      "inyak": 6689,
      "Ġsemadi": 6690,
      "Ġsembuh": 6691,
      "Ġmuara": 6692,
      "Ġmuzik": 6693,
      "ort": 6694,
      "oret": 6695,
      "organa": 6696,
      "ebal": 6697,
      "Ġmemanjang": 6698,
      "Ġmemandai": 6699,
      "Ġmemisahkan": 6700,
      "Ġkeruh": 6701,
      "Ġkerindu": 6702,
      "Ġkertas": 6703,
      "Ġkatakanlah": 6704,
      "hiraukan": 6705,
      "Ġmasihkah": 6706,
      "Ġbelah": 6707,
      "ĠPerpisahan": 6708,
      "ĠPerlahan": 6709,
      "ĠPertaruhkan": 6710,
      "Ġdialah": 6711,
      "Ġfana": 6712,
      "Ġfly": 6713,
      "Ġfajar": 6714,
      "Ġfour": 6715,
      "Ġkencing": 6716,
      "cial": 6717,
      "uaca": 6718,
      "Ġmenyahut": 6719,
      "Ġye": 6720,
      "ĠBilaku": 6721,
      "kagu": 6722,
      "kainya": 6723,
      "Ġluruh": 6724,
      "Ġlukanya": 6725,
      "Ġmenghangat": 6726,
      "Ġmenghisap": 6727,
      "Ġmenghadapi": 6728,
      "Ġmenghidupkan": 6729,
      "ampainya": 6730,
      "akhirnya": 6731,
      "Ġmelukis": 6732,
      "Ġmelengkapkan": 6733,
      "diana": 6734,
      "antauan": 6735,
      "Ġsekeras": 6736,
      "Ġsekilas": 6737,
      "Ġserinya": 6738,
      "Ġterpaut": 6739,
      "Ġterpejam": 6740,
      "Ġmungkinkan": 6741,
      "ĠKetemu": 6742,
      "ĠKepiluan": 6743,
      "Ġkesilapanku": 6744,
      "ĠFly": 6745,
      "ĠFirasat": 6746,
      "ĠFatam": 6747,
      "tapak": 6748,
      "ach": 6749,
      "Ġberpintal": 6750,
      "Ġdisang": 6751,
      "Ġdisedari": 6752,
      "osi": 6753,
      "asiku": 6754,
      "Ġsepiku": 6755,
      "Ġpengajaran": 6756,
      "ĠSubur": 6757,
      "ĠSuaramu": 6758,
      "ĠSufi": 6759,
      "ĠBukankah": 6760,
      "ĠPenat": 6761,
      "ĠPencipta": 6762,
      "Ġterleka": 6763,
      "Ġterlukis": 6764,
      "Ġterbit": 6765,
      "Ġterbentang": 6766,
      "ĠAsik": 6767,
      "ĠAsha": 6768,
      "ĠAshira": 6769,
      "ĠMembiar": 6770,
      "ĠMembisik": 6771,
      "ĠMembelai": 6772,
      "Ġberdikari": 6773,
      "angkak": 6774,
      "ĠBersaksikan": 6775,
      "Ġberkekalan": 6776,
      "Ġberkecai": 6777,
      "Ġkehidup": 6778,
      "Ġkehampaan": 6779,
      "Ġlukakan": 6780,
      "ĠMerayu": 6781,
      "Ġmenjawab": 6782,
      "Ġmenjerit": 6783,
      "ĠDaripada": 6784,
      "Ġcubaan": 6785,
      "Ġlaluan": 6786,
      "Ġgula": 6787,
      "ĠHidupkan": 6788,
      "ĠMemaksa": 6789,
      "ete": 6790,
      "ĠZal": 6791,
      "ĠZizan": 6792,
      "ĠZunika": 6793,
      "Ġmendapati": 6794,
      "Ġsejenak": 6795,
      "Ġterimalah": 6796,
      "Ġpuji": 6797,
      "Ġdipadu": 6798,
      "Ġdipenuhi": 6799,
      "Ġdipotik": 6800,
      "Ġsesalan": 6801,
      "Ġbergema": 6802,
      "Ġbergegar": 6803,
      "Ġberganjak": 6804,
      "Ġbelaku": 6805,
      "Ġpegangan": 6806,
      "epit": 6807,
      "Ġdikaulah": 6808,
      "Ġterhingga": 6809,
      "Ġabadikan": 6810,
      "Ġmelalui": 6811,
      "Ġbendung": 6812,
      "Ġbelikan": 6813,
      "ĠSesuci": 6814,
      "ĠSesejuk": 6815,
      "Ġhidangan": 6816,
      "Ġmesramu": 6817,
      "Ġthrough": 6818,
      "ĠMemanggil": 6819,
      "Ġpulanglah": 6820,
      "anggang": 6821,
      "Ġsinarmu": 6822,
      "ĠMeleraikan": 6823,
      "engkal": 6824,
      "Ġtingginya": 6825,
      "Ġmencintainya": 6826,
      "Ġterkorban": 6827,
      "Ġmencurah": 6828,
      "ĠBeing": 6829,
      "ĠKesetia": 6830,
      "jalani": 6831,
      "Ġpujaanku": 6832,
      "Ġdikalbu": 6833,
      "Ġlihatku": 6834,
      "Ġmengharungi": 6835,
      "ĠTerseksa": 6836,
      "ĠTersungkur": 6837,
      "ĠSejati": 6838,
      "Ġberlabuh": 6839,
      "ĠBahang": 6840,
      "Ġkecewakan": 6841,
      "zay": 6842,
      "Ġkemari": 6843,
      "Ġdirasa": 6844,
      "Ġkalbumu": 6845,
      "Ġreal": 6846,
      "elapak": 6847,
      "Ġfeel": 6848,
      "ĠBuatmu": 6849,
      "Ġdepanku": 6850,
      "Ġterakhirku": 6851,
      "Ġdekatmu": 6852,
      "ĠMesra": 6853,
      "ĠSiapalah": 6854,
      "Ġdaunan": 6855,
      "ĠRamlee": 6856,
      "ĠAkhlak": 6857,
      "lass": 6858,
      "Ġmusibah": 6859,
      "Ġmelulu": 6860,
      "Ġtukar": 6861,
      "Ġmelihatmu": 6862,
      "Ġkejar": 6863,
      "Ġkejora": 6864,
      "Ġselepas": 6865,
      "Ġselesa": 6866,
      "ĠMula": 6867,
      "Ġbisakah": 6868,
      "Ġbicaraku": 6869,
      "Ġtenangkan": 6870,
      "heck": 6871,
      "Ġusahlah": 6872,
      "Ġkurindu": 6873,
      "Ġkebesaran": 6874,
      "Ġwould": 6875,
      "Ġterjalin": 6876,
      "Ġterjerat": 6877,
      "egoa": 6878,
      "ujurnya": 6879,
      "etaknya": 6880,
      "ĠDirimulah": 6881,
      "Ġdarjat": 6882,
      "ĠSuratan": 6883,
      "Ġnasibku": 6884,
      "beza": 6885,
      "Ġtanpanya": 6886,
      "apper": 6887,
      "anasan": 6888,
      "Ġtuai": 6889,
      "Ġtugas": 6890,
      "Ġrintih": 6891,
      "Ġgoma": 6892,
      "Ġmenghiasi": 6893,
      "Ġbelieve": 6894,
      "Ġsabarlah": 6895,
      "ĠPengasih": 6896,
      "ĠPenghibur": 6897,
      "Ġpulau": 6898,
      "Ġangkat": 6899,
      "Ġbertaburan": 6900,
      "Ġgurun": 6901,
      "Ġsayau": 6902,
      "ahwinimu": 6903,
      "Ġberbeda": 6904,
      "Ġdarahku": 6905,
      "ĠTerbanglah": 6906,
      "Ġgelapku": 6907,
      "Ġesa": 6908,
      "Ġmaha": 6909,
      "Ġpelarian": 6910,
      "yakit": 6911,
      "ĠKemenangan": 6912,
      "ĠKemarau": 6913,
      "Ġragamu": 6914,
      "Ġsepenuhnya": 6915,
      "Ġkehadirannya": 6916,
      "Ġbosan": 6917,
      "mulaan": 6918,
      "ĠMenghalang": 6919,
      "ĠMenghancurkan": 6920,
      "Ġsale": 6921,
      "ĠHijau": 6922,
      "Ġdiperdaya": 6923,
      "Ġalasanmu": 6924,
      "ĠBenih": 6925,
      "ĠBenci": 6926,
      "Ġnota": 6927,
      "ĠTerlena": 6928,
      "Ġmenjagamu": 6929,
      "angkuanku": 6930,
      "Ġtangiskan": 6931,
      "ĠAduhai": 6932,
      "Ġnikmatnya": 6933,
      "ĠBerderai": 6934,
      "Ġmenyintai": 6935,
      "ecah": 6936,
      "Ġbernyanyi": 6937,
      "ĠMatahari": 6938,
      "ĠFikiranku": 6939,
      "ĠTemani": 6940,
      "ĠTemankan": 6941,
      "ĠMenjalinkan": 6942,
      "Ġtolak": 6943,
      "Ġtertunduk": 6944,
      "Ġtangga": 6945,
      "Ġtangkainya": 6946,
      "Ġbudimu": 6947,
      "ĠAsyiknya": 6948,
      "Ġmewah": 6949,
      "Ġmewarna": 6950,
      "Ġsoalan": 6951,
      "Ġdoaku": 6952,
      "Ġpusaramu": 6953,
      "Ġberpuasa": 6954,
      "ĠMembuatku": 6955,
      "Ġmeninggalkanku": 6956,
      "ĠSedih": 6957,
      "andingkan": 6958,
      "Ġdidunia": 6959,
      "ĠBaik": 6960,
      "Ġjual": 6961,
      "ĠCobalah": 6962,
      "dola": 6963,
      "Ġemosi": 6964,
      "Ġkunyah": 6965,
      "ĠHasbi": 6966,
      "Ġnegeri": 6967,
      "Ġmonang": 6968,
      "ĠSofaz": 6969,
      "Ġmenggangguku": 6970,
      "Ġohhhh": 6971,
      "ulihkan": 6972,
      "talgia": 6973,
      "Ġazab": 6974,
      "Ġjejak": 6975,
      "ĠBerpaling": 6976,
      "ĠBerpadu": 6977,
      "raff": 6978,
      "Ġmenyaksikan": 6979,
      "Ġmenyakitkan": 6980,
      "ĠDapatkahku": 6981,
      "ĠKono": 6982,
      "ĠKonon": 6983,
      "Ġdigambarkan": 6984,
      "ĠAlamak": 6985,
      "ĠDebu": 6986,
      "ĠTerjadinya": 6987,
      "Ġsaktimu": 6988,
      "ĠQalbi": 6989,
      "ĠTahun": 6990,
      "Ġkupuja": 6991,
      "ĠHapuskanlah": 6992,
      "Ġperhatian": 6993,
      "ĠJallallah": 6994,
      "Ġbertemankan": 6995,
      "Ġsyair": 6996,
      "Ġberhembus": 6997,
      "ĠSegunung": 6998,
      "Ġwohhh": 6999,
      "ĠKeluarga": 7000,
      "Ġsiram": 7001,
      "ĠTanah": 7002,
      "ĠSahabat": 7003,
      "Ġratuku": 7004,
      "ĠPandanganku": 7005,
      "ĠJeritan": 7006,
      "ĠRenungan": 7007,
      "Ġdakapanmu": 7008,
      "Ġilmu": 7009,
      "Ġilham": 7010,
      "Ġuhh": 7011,
      "ĠKalbu": 7012,
      "ĠDaun": 7013,
      "ĠLahirnya": 7014,
      "Ġzahirkan": 7015,
      "Ġgerakku": 7016,
      "Ġsayapku": 7017,
      "Ġmatanya": 7018,
      "Ġterbuang": 7019,
      "Ġterbuku": 7020,
      "ĠCeria": 7021,
      "ĠCermin": 7022,
      "ĠBeribu": 7023,
      "Ġtepok": 7024,
      "Ġpermintaanku": 7025,
      "Amy": 7026,
      "Amelina": 7027,
      "Ġungkapan": 7028,
      "Ġpotret": 7029,
      "ĠSengaja": 7030,
      "Ġbermusim": 7031,
      "ĠTerangilah": 7032,
      "Ġmenyusur": 7033,
      "ĠIkhlaskanlah": 7034,
      "ĠAct": 7035,
      "alistik": 7036,
      "Ġmengingatkan": 7037,
      "omplikasi": 7038,
      "Ġberterusan": 7039,
      "ĠNasibku": 7040,
      "Ġhirau": 7041,
      "Ġabout": 7042,
      "Ġkuatkanlah": 7043,
      "ĠPusara": 7044,
      "ĠJantungku": 7045,
      "Ġooohh": 7046,
      "ĠBerputik": 7047,
      "Ġubati": 7048,
      "Ġterbiasa": 7049,
      "ĠPengorbanan": 7050,
      "ffin": 7051,
      "Ġkakimu": 7052,
      "Ġsukma": 7053,
      "Ġbantal": 7054,
      "ĠSpin": 7055,
      "Ġberlindung": 7056,
      "ĠMojo": 7057,
      "Ġmendampingimu": 7058,
      "ĠMestikah": 7059,
      "Erra": 7060,
      "millahi": 7061,
      "Ġakhiri": 7062,
      "erkati": 7063,
      "ĠKedinginan": 7064,
      "ĠKebahagia": 7065,
      "ĠMampukah": 7066,
      "ĠDihati": 7067,
      "Ġcelaru": 7068,
      "Ġtalk": 7069,
      "Ġtarik": 7070,
      "Ġterlarang": 7071,
      "Ġrajamu": 7072,
      "Ġmenyangka": 7073,
      "ĠJohor": 7074,
      "Ġlenaku": 7075,
      "ĠGundah": 7076,
      "Ġpengharapan": 7077,
      "Ġterhibur": 7078,
      "ĠSaleem": 7079,
      "foya": 7080,
      "ĠKabus": 7081,
      "ĠSollallah": 7082,
      "Ġberbahasa": 7083,
      "ĠHyper": 7084,
      "ĠCipta": 7085,
      "Ġwork": 7086,
      "ĠMenitis": 7087,
      "ĠSejukkan": 7088,
      "Ġkejujuran": 7089,
      "Ġkemungkinan": 7090,
      "Ġuuuhhh": 7091,
      "ĠTypewriter": 7092,
      "asyikkan": 7093,
      "ĠTatkala": 7094,
      "ĠTutur": 7095,
      "Ġseutuhnya": 7096,
      "ĠAyie": 7097,
      "ĠAxthara": 7098,
      "Ġberlinangan": 7099,
      "ĠMancis": 7100,
      "ĠBaybe": 7101,
      "ĠDuduk": 7102,
      "ĠHooks": 7103,
      "Ġnuuraa": 7104,
      "ĠLuangkan": 7105,
      "ĠLynnzay": 7106,
      "Ġmengujimu": 7107,
      "ĠIllallah": 7108,
      "Ġwicked": 7109,
      "ĠNordiana": 7110,
      "ĠNostalgia": 7111,
      "ĠUmbrella": 7112,
      "ĠGersang": 7113,
      "ĠGhoirullah": 7114,
      "Ġmembendung": 7115,
      "ĠExists": 7116,
      "ĠFlybaits": 7117,
      "ĠFatamorgana": 7118,
      "Ġdipotikai": 7119,
      "Ak": 7120,
      "Ar": 7121,
      "Ber": 7122,
      "DC": 7123,
      "Ho": 7124,
      "Hafiz": 7125,
      "Kau": 7126,
      "Kalau": 7127,
      "Lirik": 7128,
      "Mafa": 7129,
      "Najwa": 7130,
      "Ohh": 7131,
      "PDC": 7132,
      "Usah": 7133,
      "Yana": 7134,
      "Yusry": 7135,
      "air": 7136,
      "bih": 7137,
      "banya": 7138,
      "cil": 7139,
      "cantik": 7140,
      "compl": 7141,
      "dil": 7142,
      "dosa": 7143,
      "detik": 7144,
      "debar": 7145,
      "ean": 7146,
      "edah": 7147,
      "edak": 7148,
      "eet": 7149,
      "egori": 7150,
      "fe": 7151,
      "fini": 7152,
      "gg": 7153,
      "gn": 7154,
      "gari": 7155,
      "hia": 7156,
      "hud": 7157,
      "hitam": 7158,
      "iel": 7159,
      "jaga": 7160,
      "junai": 7161,
      "kkan": 7162,
      "kak": 7163,
      "kal": 7164,
      "kawanku": 7165,
      "kekasih": 7166,
      "mari": 7167,
      "madi": 7168,
      "mon": 7169,
      "mandang": 7170,
      "maramu": 7171,
      "nasir": 7172,
      "oma": 7173,
      "oalkan": 7174,
      "per": 7175,
      "pah": 7176,
      "pir": 7177,
      "pita": 7178,
      "pus": 7179,
      "ren": 7180,
      "rong": 7181,
      "rose": 7182,
      "sya": 7183,
      "sat": 7184,
      "seng": 7185,
      "snya": 7186,
      "sur": 7187,
      "sinya": 7188,
      "suku": 7189,
      "senyum": 7190,
      "selam": 7191,
      "spir": 7192,
      "tr": 7193,
      "trang": 7194,
      "tle": 7195,
      "ulah": 7196,
      "ual": 7197,
      "udi": 7198,
      "uanmu": 7199,
      "wira": 7200,
      "warn": 7201,
      "yit": 7202,
      "yonara": 7203,
      "zah": 7204,
      "zal": 7205,
      "zed": 7206,
      "Ġel": 7207,
      "Ġanda": 7208,
      "Ġikat": 7209,
      "Ġuji": 7210,
      "Ġempat": 7211,
      "Ġimbas": 7212,
      "ans": 7213,
      "anilah": 7214,
      "erik": 7215,
      "erindu": 7216,
      "erahkan": 7217,
      "erbak": 7218,
      "Ġkind": 7219,
      "Ġkarang": 7220,
      "Ġkunjung": 7221,
      "Ġkuntum": 7222,
      "lau": 7223,
      "laku": 7224,
      "inanya": 7225,
      "inci": 7226,
      "insan": 7227,
      "enamu": 7228,
      "enja": 7229,
      "enting": 7230,
      "entas": 7231,
      "enungi": 7232,
      "Ġmaj": 7233,
      "Ġmil": 7234,
      "Ġmanj": 7235,
      "Ġmamp": 7236,
      "Ġmed": 7237,
      "Ġmalas": 7238,
      "Ġmangs": 7239,
      "Ġmuko": 7240,
      "Ġsanj": 7241,
      "Ġsorang": 7242,
      "Ġsaid": 7243,
      "Ġdul": 7244,
      "Ġdetak": 7245,
      "Ġdamailah": 7246,
      "Ġdekati": 7247,
      "Ġbun": 7248,
      "Ġbuk": 7249,
      "Ġbala": 7250,
      "Ġbanj": 7251,
      "Ġbor": 7252,
      "Ġbukti": 7253,
      "Ġbarang": 7254,
      "Ġbro": 7255,
      "Ġbawak": 7256,
      "kui": 7257,
      "ahaja": 7258,
      "tikan": 7259,
      "tiara": 7260,
      "Ġpul": 7261,
      "Ġpanji": 7262,
      "Ġpayung": 7263,
      "Ġprimadona": 7264,
      "Ġpoie": 7265,
      "Ġpimpin": 7266,
      "kanak": 7267,
      "Ġhen": 7268,
      "Ġhas": 7269,
      "Ġhaya": 7270,
      "Ġhulu": 7271,
      "Ġhelah": 7272,
      "Ġhud": 7273,
      "Ġhuni": 7274,
      "Ġhormat": 7275,
      "Ġhaus": 7276,
      "Ġhadiah": 7277,
      "ĠKi": 7278,
      "ĠKun": 7279,
      "ĠKemb": 7280,
      "ĠKuntu": 7281,
      "ĠKnock": 7282,
      "ĠKito": 7283,
      "ĠKelak": 7284,
      "askanlah": 7285,
      "Ġtol": 7286,
      "Ġthan": 7287,
      "Ġtandingan": 7288,
      "Ġtujuh": 7289,
      "Ġtunai": 7290,
      "Ġtembok": 7291,
      "Ġtumpang": 7292,
      "untun": 7293,
      "auan": 7294,
      "aks": 7295,
      "akalan": 7296,
      "Ġdio": 7297,
      "Ġdian": 7298,
      "Ġdiangg": 7299,
      "Ġditanya": 7300,
      "Ġdica": 7301,
      "Ġdihiris": 7302,
      "Ġdiundang": 7303,
      "Ġdiwajah": 7304,
      "Ġditur": 7305,
      "Ġdihiraukan": 7306,
      "ĠTang": 7307,
      "ĠTel": 7308,
      "ĠTum": 7309,
      "ĠTry": 7310,
      "ĠTunjukkan": 7311,
      "ĠTunaikan": 7312,
      "ĠTris": 7313,
      "ĠTembok": 7314,
      "ĠTrima": 7315,
      "ĠTunjukkanlah": 7316,
      "Ġsee": 7317,
      "Ġsehar": 7318,
      "Ġseandainya": 7319,
      "Ġsebahagi": 7320,
      "Ġsetinggi": 7321,
      "Ġsebagaimana": 7322,
      "Ġseinci": 7323,
      "ĠAri": 7324,
      "ĠApi": 7325,
      "ĠAwal": 7326,
      "ĠAqasha": 7327,
      "ĠSc": 7328,
      "ĠSor": 7329,
      "ĠSoh": 7330,
      "ĠSaku": 7331,
      "ĠSinggah": 7332,
      "ĠSamudera": 7333,
      "Ġaj": 7334,
      "Ġaau": 7335,
      "Ġajar": 7336,
      "Ġagak": 7337,
      "Ġberw": 7338,
      "Ġberapi": 7339,
      "Ġbertah": 7340,
      "Ġbertau": 7341,
      "Ġberiku": 7342,
      "Ġberupa": 7343,
      "Ġberalun": 7344,
      "Ġberkurun": 7345,
      "Ġberalih": 7346,
      "Ġberlinang": 7347,
      "Ġberlegar": 7348,
      "Ġbergulung": 7349,
      "Ġberguguran": 7350,
      "Ġberusaha": 7351,
      "ĠMe": 7352,
      "ĠMoh": 7353,
      "ĠMampu": 7354,
      "ĠMadu": 7355,
      "ĠMadah": 7356,
      "ĠMoss": 7357,
      "ĠMuncul": 7358,
      "ĠMinggu": 7359,
      "ĠMafa": 7360,
      "ĠMnasir": 7361,
      "amer": 7362,
      "amik": 7363,
      "engat": 7364,
      "Ġkui": 7365,
      "Ġkubawa": 7366,
      "Ġkuabadi": 7367,
      "Ġkudus": 7368,
      "ĠBrader": 7369,
      "ĠBurung": 7370,
      "ĠBaji": 7371,
      "ĠBikin": 7372,
      "ĠDir": 7373,
      "ĠDita": 7374,
      "ĠDai": 7375,
      "ĠDikir": 7376,
      "ĠDingin": 7377,
      "ĠDeras": 7378,
      "ĠDebaran": 7379,
      "ĠDont": 7380,
      "ĠDhia": 7381,
      "ukau": 7382,
      "uklah": 7383,
      "ukamu": 7384,
      "Ġcit": 7385,
      "Ġcamp": 7386,
      "Ġcle": 7387,
      "Ġcengkam": 7388,
      "Ġcuaca": 7389,
      "intasi": 7390,
      "Ġjen": 7391,
      "Ġjant": 7392,
      "Ġjelma": 7393,
      "Ġjag": 7394,
      "Ġjendela": 7395,
      "apang": 7396,
      "ird": 7397,
      "iram": 7398,
      "Ġtauk": 7399,
      "Ġtatap": 7400,
      "Ġtambah": 7401,
      "Ġtawar": 7402,
      "Ġtapak": 7403,
      "Ġterlam": 7404,
      "Ġterisi": 7405,
      "Ġterenang": 7406,
      "Ġterulang": 7407,
      "Ġtercari": 7408,
      "Ġterhiris": 7409,
      "Ġterkubur": 7410,
      "Ġteramat": 7411,
      "Ġteratai": 7412,
      "Ġterabadi": 7413,
      "Ġterdampar": 7414,
      "Ġterguris": 7415,
      "Ġterurus": 7416,
      "Ġteratur": 7417,
      "Ġterkurung": 7418,
      "ihku": 7419,
      "Ġrama": 7420,
      "Ġrab": 7421,
      "Ġrapi": 7422,
      "Ġrom": 7423,
      "Ġrop": 7424,
      "Ġretak": 7425,
      "Ġroda": 7426,
      "Ġrempuh": 7427,
      "Ġrosak": 7428,
      "Ġromancinta": 7429,
      "git": 7430,
      "giang": 7431,
      "Ġmenu": 7432,
      "Ġmenelan": 7433,
      "Ġmenunaikan": 7434,
      "Ġmendayu": 7435,
      "Ġmenumpang": 7436,
      "isinya": 7437,
      "Ġkehar": 7438,
      "Ġkeindah": 7439,
      "Ġkelak": 7440,
      "Ġkede": 7441,
      "Ġkedengar": 7442,
      "Ġkesalah": 7443,
      "Ġketakut": 7444,
      "Ġkeampunan": 7445,
      "Ġkeemasan": 7446,
      "Ġkekanda": 7447,
      "Ġlagenda": 7448,
      "ĠHoo": 7449,
      "ĠHamba": 7450,
      "ĠHubungan": 7451,
      "ĠHello": 7452,
      "dusan": 7453,
      "duhan": 7454,
      "anyakannya": 7455,
      "inggang": 7456,
      "itaran": 7457,
      "ĠSehari": 7458,
      "ĠSeumur": 7459,
      "ĠSepatah": 7460,
      "ĠSetinggi": 7461,
      "ĠSebagaimana": 7462,
      "Ġperba": 7463,
      "Ġperindu": 7464,
      "Ġpertanya": 7465,
      "Ġpercik": 7466,
      "Ġpermulaan": 7467,
      "ikkan": 7468,
      "ikis": 7469,
      "tual": 7470,
      "tupat": 7471,
      "ribu": 7472,
      "Ġnang": 7473,
      "Ġnga": 7474,
      "Ġnur": 7475,
      "Ġnian": 7476,
      "Ġnow": 7477,
      "ĠPan": 7478,
      "ĠPand": 7479,
      "ĠPelu": 7480,
      "ĠPengg": 7481,
      "ĠPaling": 7482,
      "ĠPantai": 7483,
      "ĠPejam": 7484,
      "ĠPesan": 7485,
      "ĠPeluh": 7486,
      "ĠPegang": 7487,
      "ĠPrime": 7488,
      "ĠPulihkan": 7489,
      "ĠLes": 7490,
      "ĠLaman": 7491,
      "ĠLenyap": 7492,
      "ĠLembaran": 7493,
      "ĠLewat": 7494,
      "ĠLetaknya": 7495,
      "imba": 7496,
      "ĠJel": 7497,
      "ĠJua": 7498,
      "ĠJebat": 7499,
      "ĠJabat": 7500,
      "ĠJib": 7501,
      "nyap": 7502,
      "usa": 7503,
      "ust": 7504,
      "ĠKulafazkan": 7505,
      "ĠKumbang": 7506,
      "Ġout": 7507,
      "Ġover": 7508,
      "ĠRu": 7509,
      "ĠRas": 7510,
      "ĠRayu": 7511,
      "ĠRuhi": 7512,
      "ĠRacun": 7513,
      "ĠRupanya": 7514,
      "ĠRuntun": 7515,
      "ĠRimba": 7516,
      "elitkan": 7517,
      "elitku": 7518,
      "daun": 7519,
      "dawat": 7520,
      "uruk": 7521,
      "ĠCara": 7522,
      "ĠCamar": 7523,
      "ĠCincin": 7524,
      "Ġmenggi": 7525,
      "Ġmengsi": 7526,
      "Ġmengais": 7527,
      "Ġmengurung": 7528,
      "Ġmengecewa": 7529,
      "Ġmengetah": 7530,
      "Ġmengahwinimu": 7531,
      "ilin": 7532,
      "Ġle": 7533,
      "Ġlemb": 7534,
      "Ġlong": 7535,
      "Ġlegar": 7536,
      "Ġlepak": 7537,
      "Ġlose": 7538,
      "Ġlengkap": 7539,
      "Ġlanggang": 7540,
      "Ġtiong": 7541,
      "Ġtirai": 7542,
      "ĠIanya": 7543,
      "ĠIdam": 7544,
      "Ġbersemu": 7545,
      "Ġbersenda": 7546,
      "Ġbersanding": 7547,
      "Ġbersengketa": 7548,
      "Ġbersujud": 7549,
      "ond": 7550,
      "ayap": 7551,
      "ĠYo": 7552,
      "ĠYana": 7553,
      "ĠBerita": 7554,
      "ĠBerulang": 7555,
      "ĠBerkata": 7556,
      "ĠBerlegar": 7557,
      "ĠBerguguran": 7558,
      "ĠBerapinya": 7559,
      "ĠDila": 7560,
      "ĠDiana": 7561,
      "ĠDiulit": 7562,
      "ĠDitur": 7563,
      "Ġwas": 7564,
      "Ġwak": 7565,
      "Ġwira": 7566,
      "Ġwaspada": 7567,
      "Ġwatak": 7568,
      "Ġwrong": 7569,
      "ĠTakhta": 7570,
      "esalan": 7571,
      "ĠLawa": 7572,
      "ĠOmp": 7573,
      "ĠObor": 7574,
      "ĠTerpan": 7575,
      "ĠTerbaik": 7576,
      "ĠTerkunci": 7577,
      "ĠTerdampar": 7578,
      "ĠTerapung": 7579,
      "umbu": 7580,
      "umpun": 7581,
      "elat": 7582,
      "elaan": 7583,
      "elalu": 7584,
      "ĠNang": 7585,
      "ĠNadi": 7586,
      "ĠNeg": 7587,
      "ĠNombor": 7588,
      "ĠNikah": 7589,
      "eks": 7590,
      "Ġgh": 7591,
      "Ġgen": 7592,
      "Ġgeng": 7593,
      "Ġgini": 7594,
      "Ġgemu": 7595,
      "Ġgej": 7596,
      "Ġgho": 7597,
      "Ġgapai": 7598,
      "Ġgambar": 7599,
      "Ġgaduh": 7600,
      "Ġgetir": 7601,
      "ĠMenc": 7602,
      "ĠMenatap": 7603,
      "ĠMenagih": 7604,
      "ĠMenikmati": 7605,
      "ĠMenjalani": 7606,
      "ĠMenanyakannya": 7607,
      "bukan": 7608,
      "Ġbuek": 7609,
      "Ġbubur": 7610,
      "ĠLaguku": 7611,
      "ĠLagumu": 7612,
      "Ġbijak": 7613,
      "Ġteduh": 7614,
      "Ġteduhan": 7615,
      "ĠWaj": 7616,
      "ĠWho": 7617,
      "anjat": 7618,
      "Ġsuku": 7619,
      "Ġsufi": 7620,
      "abih": 7621,
      "aburan": 7622,
      "Ġundi": 7623,
      "Ġuntung": 7624,
      "Ġmerkah": 7625,
      "Ġmerendah": 7626,
      "Ġmerasuk": 7627,
      "ults": 7628,
      "ulanganmu": 7629,
      "rayu": 7630,
      "Ġuntuknya": 7631,
      "ĠArena": 7632,
      "ĠArni": 7633,
      "ĠArjunai": 7634,
      "Ġilahi": 7635,
      "ĠMengukir": 7636,
      "ĠMengganti": 7637,
      "ĠMengingat": 7638,
      "ĠMenghiris": 7639,
      "ĠMengusik": 7640,
      "ĠMengundang": 7641,
      "ĠMengikut": 7642,
      "Ġenggan": 7643,
      "ĠGang": 7644,
      "ĠGembira": 7645,
      "ĠGenggam": 7646,
      "ĠGambar": 7647,
      "ĠGraviti": 7648,
      "Ġmemberikan": 7649,
      "iwayat": 7650,
      "ĠDaniel": 7651,
      "ngan": 7652,
      "Ġpergimu": 7653,
      "Ġsemanis": 7654,
      "Ġmudi": 7655,
      "Ġmutiara": 7656,
      "oramu": 7657,
      "ebook": 7658,
      "Ġmemetik": 7659,
      "Ġkeras": 7660,
      "Ġkeramat": 7661,
      "Ġkernamu": 7662,
      "Ġkerdipan": 7663,
      "Ġkerelaan": 7664,
      "Ġincompl": 7665,
      "Ġpentas": 7666,
      "Ġpenamat": 7667,
      "Ġpencuri": 7668,
      "epan": 7669,
      "ĠRockers": 7670,
      "oli": 7671,
      "Ġbeta": 7672,
      "Ġbeen": 7673,
      "Ġbeku": 7674,
      "alanku": 7675,
      "inggalan": 7676,
      "ĠAnti": 7677,
      "ĠPerut": 7678,
      "awati": 7679,
      "astikan": 7680,
      "Ġapalah": 7681,
      "Ġbahang": 7682,
      "ĠUncat": 7683,
      "ĠUntung": 7684,
      "ongsi": 7685,
      "onggang": 7686,
      "ongkar": 7687,
      "Ġft": 7688,
      "Ġfirasat": 7689,
      "Ġkenyata": 7690,
      "Ġkencana": 7691,
      "Ġpernahku": 7692,
      "Ġpernahkah": 7693,
      "Ġmenyerang": 7694,
      "Ġmenyombong": 7695,
      "Ġmenyembuh": 7696,
      "Ġsetitis": 7697,
      "Ġyop": 7698,
      "kay": 7699,
      "kaku": 7700,
      "Ġlubang": 7701,
      "Ġlump": 7702,
      "Ġmenghembus": 7703,
      "Ġmenghulur": 7704,
      "Ġmenghantar": 7705,
      "ampakan": 7706,
      "Ġselami": 7707,
      "Ġkeperitan": 7708,
      "Ġmelekat": 7709,
      "ĠduniaMu": 7710,
      "Ġsagunya": 7711,
      "Ġnaka": 7712,
      "Ġserik": 7713,
      "Ġserabut": 7714,
      "Ġserpih": 7715,
      "Ġkekaburan": 7716,
      "bangk": 7717,
      "Ġterperi": 7718,
      "Ġtersayang": 7719,
      "Ġtersia": 7720,
      "Ġtersendiri": 7721,
      "Ġtersesat": 7722,
      "ĠKeayu": 7723,
      "ĠKeikhlasan": 7724,
      "ĠKeinsa": 7725,
      "Ġberjudi": 7726,
      "Ġkesungguh": 7727,
      "Ġkesakit": 7728,
      "ĠFantasia": 7729,
      "acebook": 7730,
      "Ġsepuluh": 7731,
      "ĠKasihanilah": 7732,
      "tahu": 7733,
      "inaan": 7734,
      "Ġberpo": 7735,
      "Ġberperang": 7736,
      "Ġsetiaku": 7737,
      "Ġdisentuh": 7738,
      "Ġdisebut": 7739,
      "Ġdisirami": 7740,
      "ossa": 7741,
      "Ġlagukan": 7742,
      "elut": 7743,
      "elubungi": 7744,
      "Ġpengalamanku": 7745,
      "Ġpengakhirnya": 7746,
      "ampuan": 7747,
      "Ġupaya": 7748,
      "Ġumur": 7749,
      "ĠSelamilah": 7750,
      "intangi": 7751,
      "ĠPeny": 7752,
      "ĠPendam": 7753,
      "ĠPenting": 7754,
      "ĠPencuri": 7755,
      "ĠSiap": 7756,
      "Ġperlulah": 7757,
      "Ġmampuku": 7758,
      "Ġasmaramu": 7759,
      "ĠAlgo": 7760,
      "harap": 7761,
      "takona": 7762,
      "ĠMembina": 7763,
      "ĠMemburu": 7764,
      "ĠMemberikan": 7765,
      "ĠMembelitku": 7766,
      "ĠIngak": 7767,
      "ĠIngatan": 7768,
      "Ġberdendang": 7769,
      "Ġberdalih": 7770,
      "Ġyak": 7771,
      "Ġjalanku": 7772,
      "ĠBersu": 7773,
      "Ġlaie": 7774,
      "Ġberker": 7775,
      "Ġberkhayal": 7776,
      "Ġlamaku": 7777,
      "Ġlukai": 7778,
      "ĠMeratap": 7779,
      "ĠMerawati": 7780,
      "Ġmenjej": 7781,
      "Ġmenjelang": 7782,
      "ĠSetitis": 7783,
      "ĠTidakku": 7784,
      "Ġseber": 7785,
      "Ġseben": 7786,
      "Ġsebati": 7787,
      "Ġseberang": 7788,
      "buru": 7789,
      "Ġduku": 7790,
      "Ġsaatku": 7791,
      "ewas": 7792,
      "ewahan": 7793,
      "Ġmiliknya": 7794,
      "ĠMemendam": 7795,
      "butan": 7796,
      "Ġdatanglah": 7797,
      "eth": 7798,
      "Ġharuslah": 7799,
      "Ġimpianmu": 7800,
      "ĠSepanjang": 7801,
      "ĠSeputih": 7802,
      "ĠZahir": 7803,
      "ĠSayonara": 7804,
      "antun": 7805,
      "Ġmenderu": 7806,
      "Ġsejernih": 7807,
      "Ġsejengkal": 7808,
      "opak": 7809,
      "Ġlupakanmu": 7810,
      "Ġberilusi": 7811,
      "Ġbintangnya": 7812,
      "tandusan": 7813,
      "Ġdipuja": 7814,
      "Ġdipinggir": 7815,
      "Ġdipelat": 7816,
      "diran": 7817,
      "ĠKena": 7818,
      "Ġsesekali": 7819,
      "Ġseseorang": 7820,
      "Ġbelaimu": 7821,
      "ĠAhmadi": 7822,
      "ĠSatukanlah": 7823,
      "ĠJadikanlah": 7824,
      "Ġkotor": 7825,
      "ĠAmbang": 7826,
      "ĠInginkan": 7827,
      "Ġkalian": 7828,
      "Ġpegi": 7829,
      "Ġpecah": 7830,
      "Ġpunyai": 7831,
      "Ġruyung": 7832,
      "Ġpelita": 7833,
      "Ġterhina": 7834,
      "Ġkalut": 7835,
      "Ġmelar": 7836,
      "Ġmelati": 7837,
      "Ġmelatah": 7838,
      "Ġbenih": 7839,
      "ĠSesat": 7840,
      "Ġgunakan": 7841,
      "Ġhijab": 7842,
      "Ġmerindui": 7843,
      "ĠSekata": 7844,
      "ĠSeketika": 7845,
      "ĠSekiranya": 7846,
      "ĠSekelip": 7847,
      "Ġbaruku": 7848,
      "ĠRasalah": 7849,
      "Ġsinarnya": 7850,
      "ĠMelepas": 7851,
      "ĠMelenyapkan": 7852,
      "Ġpenuhi": 7853,
      "Ġtingk": 7854,
      "ĠMenyiksa": 7855,
      "ĠMenyintai": 7856,
      "Ġmencakar": 7857,
      "Ġmencurahkan": 7858,
      "Ġmega": 7859,
      "ĠKepala": 7860,
      "ĠKepangkuanku": 7861,
      "Ġbermesra": 7862,
      "Ġnananan": 7863,
      "impang": 7864,
      "Ġpintar": 7865,
      "Ġbawakan": 7866,
      "Ġbawalah": 7867,
      "ĠKesuci": 7868,
      "ĠBersamalah": 7869,
      "golak": 7870,
      "utupi": 7871,
      "ĠAzean": 7872,
      "Ġdikato": 7873,
      "Ġdikota": 7874,
      "Ġsahara": 7875,
      "Ġsedarkah": 7876,
      "putar": 7877,
      "ĠTelahku": 7878,
      "Ġbenarku": 7879,
      "ĠShe": 7880,
      "ĠShahir": 7881,
      "ĠBisik": 7882,
      "Ġriba": 7883,
      "Ġritual": 7884,
      "ĠBahagi": 7885,
      "ĠSenyummu": 7886,
      "ĠSenyumanmu": 7887,
      "ĠManalah": 7888,
      "Ġpersada": 7889,
      "Ġpersembahkan": 7890,
      "Ġpersoalkan": 7891,
      "Ġiaitu": 7892,
      "Ġgadisku": 7893,
      "Ġkemana": 7894,
      "Ġkemesraan": 7895,
      "Ġkemampuan": 7896,
      "Ġkemewahan": 7897,
      "ĠSedangku": 7898,
      "Ġredah": 7899,
      "Ġlakumu": 7900,
      "ĠTerbuka": 7901,
      "ĠTerbiar": 7902,
      "Ġmemutuskan": 7903,
      "Ġdepanmu": 7904,
      "Ġall": 7905,
      "Ġalek": 7906,
      "aaa": 7907,
      "Ġdihatimu": 7908,
      "Ġday": 7909,
      "Ġbakti": 7910,
      "emasya": 7911,
      "Ġjagalah": 7912,
      "Ġmeluahkan": 7913,
      "ĠhambaMu": 7914,
      "ĠPulangkan": 7915,
      "Ġarahku": 7916,
      "Ġnyatakan": 7917,
      "ĠSeruan": 7918,
      "ĠSeratus": 7919,
      "ĠSerulah": 7920,
      "Ġenak": 7921,
      "Ġenam": 7922,
      "Ġenjo": 7923,
      "Ġterbangkan": 7924,
      "ĠOranglah": 7925,
      "Ġselindung": 7926,
      "ĠMuffin": 7927,
      "Ġlamar": 7928,
      "Ġkail": 7929,
      "ersangan": 7930,
      "Ġbismillahi": 7931,
      "Ġamalan": 7932,
      "Ġkeluhan": 7933,
      "ayanya": 7934,
      "Ġditeman": 7935,
      "Ġditentukan": 7936,
      "Ġusaha": 7937,
      "Ġkurus": 7938,
      "Ġsuarakan": 7939,
      "odo": 7940,
      "ĠJalanan": 7941,
      "ĠMengharung": 7942,
      "egak": 7943,
      "Ġtelef": 7944,
      "ĠBerikanku": 7945,
      "Ġdarat": 7946,
      "Ġhampiri": 7947,
      "Ġdilukai": 7948,
      "Ġtanam": 7949,
      "Ġkegersangan": 7950,
      "Ġmembuatmu": 7951,
      "Ġgoda": 7952,
      "Ġpentingnya": 7953,
      "mpah": 7954,
      "Ġmenemanimu": 7955,
      "ĠCubalah": 7956,
      "ĠPengalaman": 7957,
      "buhku": 7958,
      "ĠSyuhada": 7959,
      "Ġcereka": 7960,
      "Ġpenawarnya": 7961,
      "obek": 7962,
      "Ġhabiskan": 7963,
      "Ġselatan": 7964,
      "ĠBawaku": 7965,
      "Ġjawapannya": 7966,
      "Ġkecilmu": 7967,
      "Ġmahkota": 7968,
      "Ġpelaj": 7969,
      "ĠKemana": 7970,
      "ĠKemaafan": 7971,
      "ĠTerkadang": 7972,
      "ĠTerkenangkan": 7973,
      "ĠTerkedu": 7974,
      "Ġmenghilangkan": 7975,
      "Ġboy": 7976,
      "Ġboom": 7977,
      "Ġboys": 7978,
      "Ġhooo": 7979,
      "ĠPasir": 7980,
      "ĠBerganjak": 7981,
      "ĠMenghitung": 7982,
      "lyn": 7983,
      "Ġsalji": 7984,
      "ĠBangkitlah": 7985,
      "Ġpenghinaan": 7986,
      "Ġdipersia": 7987,
      "Ġhinaan": 7988,
      "Ġapapun": 7989,
      "Ġambisi": 7990,
      "ĠBenua": 7991,
      "ĠBencana": 7992,
      "Ġnoda": 7993,
      "Ġnogori": 7994,
      "ĠTerlepas": 7995,
      "ĠSyurgawi": 7996,
      "Ġtangisku": 7997,
      "Ġtangismu": 7998,
      "Ġtangisanku": 7999,
      "Ġamatku": 8000,
      "ĠBerdebar": 8001,
      "ĠXPDC": 8002,
      "Ġdihampakan": 8003,
      "ĠSakitnya": 8004,
      "ĠFikiran": 8005,
      "ĠFikirku": 8006,
      "amarul": 8007,
      "Ġjelaskan": 8008,
      "ĠPulau": 8009,
      "Ġolehku": 8010,
      "ĠRelakan": 8011,
      "Ġwarnamu": 8012,
      "ĠHarumnya": 8013,
      "Ġkelaku": 8014,
      "Ġkelayuan": 8015,
      "ĠSendirian": 8016,
      "ĠBolehku": 8017,
      "ĠPeluklah": 8018,
      "ĠManisnya": 8019,
      "rugg": 8020,
      "very": 8021,
      "Ġmasy": 8022,
      "Ġsopi": 8023,
      "Ġpuspita": 8024,
      "Ġhentikan": 8025,
      "ĠAmbil": 8026,
      "ĠSalwa": 8027,
      "ĠPutri": 8028,
      "Ġrayuan": 8029,
      "Ġmenerimaku": 8030,
      "ĠMalaysia": 8031,
      "Ġcome": 8032,
      "ĠChinta": 8033,
      "ĠChai": 8034,
      "Ġgayaku": 8035,
      "Ġekau": 8036,
      "Ġkacau": 8037,
      "Ġkacak": 8038,
      "Ġdemikian": 8039,
      "ĠImaginasi": 8040,
      "ĠTakdirku": 8041,
      "ĠGerimis": 8042,
      "Ġharuman": 8043,
      "Ġbetulkan": 8044,
      "Ġpengorbanannya": 8045,
      "Ġpejam": 8046,
      "ĠBerte": 8047,
      "Ġkuning": 8048,
      "ĠMatikan": 8049,
      "Ġkusimpan": 8050,
      "ĠBlackrose": 8051,
      "Ġmenipu": 8052,
      "Ġsendamu": 8053,
      "ictor": 8054,
      "Ġsuntingmu": 8055,
      "Ġsuntinganku": 8056,
      "ĠSoal": 8057,
      "Ġaint": 8058,
      "Ġjelang": 8059,
      "irimkan": 8060,
      "Ġwhen": 8061,
      "Ġhalangannya": 8062,
      "Ġauua": 8063,
      "Ġazan": 8064,
      "Ġazali": 8065,
      "ĠDayangku": 8066,
      "ĠHancurlah": 8067,
      "ĠHancurnya": 8068,
      "Ġwithout": 8069,
      "Ġmenyakit": 8070,
      "Ġmenyaksi": 8071,
      "Ġgurauan": 8072,
      "putra": 8073,
      "angsian": 8074,
      "Ġpinggan": 8075,
      "Ġhangatnya": 8076,
      "Ġhulurkanlah": 8077,
      "ĠKonkrit": 8078,
      "Ġtemeh": 8079,
      "Ġdigenggam": 8080,
      "ĠTabir": 8081,
      "Ġsebutkan": 8082,
      "ĠDepa": 8083,
      "Ġjasadku": 8084,
      "Ġterniat": 8085,
      "ĠQalam": 8086,
      "Ġsaujana": 8087,
      "Ġkupendam": 8088,
      "ĠJalinan": 8089,
      "ĠJalinkan": 8090,
      "Ġmengatasi": 8091,
      "ĠkurniaNya": 8092,
      "Ġusul": 8093,
      "Ġdicantum": 8094,
      "ĠMulanya": 8095,
      "ĠSegenap": 8096,
      "ĠPunyai": 8097,
      "ĠBercahaya": 8098,
      "ĠMenghiasi": 8099,
      "ĠKeluhan": 8100,
      "ĠMenyayangiku": 8101,
      "ĠVictor": 8102,
      "Ġsiksaan": 8103,
      "Ġpulihlah": 8104,
      "Ġhebatnya": 8105,
      "ĠTanamkan": 8106,
      "ĠSahara": 8107,
      "Ġawek": 8108,
      "ĠMewangi": 8109,
      "Ġoooo": 8110,
      "ĠRenunglah": 8111,
      "Ġmengundur": 8112,
      "Ġkedukaanmu": 8113,
      "Ġpetunjukmu": 8114,
      "Ġdakapanku": 8115,
      "Ġuhhh": 8116,
      "Ġbosar": 8117,
      "ĠMiss": 8118,
      "Ġcahayanya": 8119,
      "Ġperhamba": 8120,
      "Ġperihnya": 8121,
      "ĠPinang": 8122,
      "ĠLahirkanlah": 8123,
      "ĠJujurlah": 8124,
      "ĠIbarat": 8125,
      "Ġgenggami": 8126,
      "Ġkesetiaanmu": 8127,
      "Ġbelakangku": 8128,
      "Ġsentuhannya": 8129,
      "ĠGugurlah": 8130,
      "Ġlumrahnya": 8131,
      "Ġits": 8132,
      "Ġsatria": 8133,
      "Ġresults": 8134,
      "Ġmengenangmu": 8135,
      "ĠNanana": 8136,
      "Ġtepuk": 8137,
      "ĠBeginikah": 8138,
      "Ġpermintaannya": 8139,
      "ĠAdiwira": 8140,
      "tyle": 8141,
      "Ġungkapkan": 8142,
      "Ġtandanya": 8143,
      "Ġremeh": 8144,
      "Ġlapar": 8145,
      "ĠSegaris": 8146,
      "ĠJelaskanlah": 8147,
      "pijaklah": 8148,
      "Ġlewat": 8149,
      "ĠWann": 8150,
      "fsirkan": 8151,
      "ĠTuanku": 8152,
      "ĠTunggulah": 8153,
      "Ġcairkan": 8154,
      "Ġketahuanmu": 8155,
      "ĠSeluas": 8156,
      "ĠLumrah": 8157,
      "Ġmengingati": 8158,
      "ĠIlham": 8159,
      "ĠIllusi": 8160,
      "ĠNazim": 8161,
      "ĠNazira": 8162,
      "Ġtebing": 8163,
      "ĠPersis": 8164,
      "Ġriuhnya": 8165,
      "Ġbatasannya": 8166,
      "iputi": 8167,
      "Ġdinanti": 8168,
      "Ġdendangkan": 8169,
      "Ġprasangka": 8170,
      "ĠKemanakah": 8171,
      "Ġtutur": 8172,
      "Ġdilamun": 8173,
      "Ġditiup": 8174,
      "ĠBumiputra": 8175,
      "Ġcogh": 8176,
      "ĠPusing": 8177,
      "Ġwangian": 8178,
      "Ġmenyelami": 8179,
      "Ġsekelilingmu": 8180,
      "ĠSemadilah": 8181,
      "ĠMusnahlah": 8182,
      "ĠAnggaplah": 8183,
      "2013": 8184,
      "2014": 8185,
      "Ingatlah": 8186,
      "langkahmu": 8187,
      "Ġminum": 8188,
      "Ġsindiran": 8189,
      "Ġsusu": 8190,
      "Ġsumbang": 8191,
      "Ġsingkirkan": 8192,
      "Ġpedoman": 8193,
      "ĠKenanglah": 8194,
      "Ġsetangga": 8195,
      "Ġsetangkai": 8196,
      "ĠDarling": 8197,
      "ĠDarjat": 8198,
      "Ġmenciptakan": 8199,
      "ĠMenambahkan": 8200,
      "Ġpenjuru": 8201,
      "Ġmenghinaku": 8202,
      "Ġmenerimamu": 8203,
      "ĠPasrahku": 8204,
      "Ġdestinasimu": 8205,
      "ergian": 8206,
      "enteram": 8207,
      "Ġstrugg": 8208,
      "Ġbongkak": 8209,
      "Ġpaksaan": 8210,
      "ĠMajid": 8211,
      "ĠDrive": 8212,
      "ĠDeja": 8213,
      "Ġmensilang": 8214,
      "Ġmenaklukan": 8215,
      "Ġketerlanjuranku": 8216,
      "Ġperbuatan": 8217,
      "ĠPudar": 8218,
      "ĠLembutnya": 8219,
      "ĠJambatan": 8220,
      "Ġlife": 8221,
      "ĠUcapkanlah": 8222,
      "Ġkerjaya": 8223,
      "Ġputaran": 8224,
      "ĠPenderitaan": 8225,
      "Ġmaknanya": 8226,
      "Ġrahsianya": 8227,
      "Ġbermaafan": 8228,
      "Awie": 8229,
      "Ġkocik": 8230,
      "Ġsamseng": 8231,
      "Ġdengki": 8232,
      "ĠKacamu": 8233,
      "ĠTepok": 8234,
      "ĠMemper": 8235,
      "Ġkutukan": 8236,
      "ĠDinamik": 8237,
      "ĠDenyut": 8238,
      "ĠParanoid": 8239,
      "ĠJejaka": 8240,
      "ĠRestumu": 8241,
      "ĠBerkain": 8242,
      "emputku": 8243,
      "Ġmenyambut": 8244,
      "Ġbentangkan": 8245,
      "Ġrimbunan": 8246,
      "Ġparapappa": 8247,
      "Ġbatik": 8248,
      "Ġditubuhku": 8249,
      "Ġdikurnia": 8250,
      "ĠSasaran": 8251,
      "Ġberahi": 8252,
      "engsaraan": 8253,
      "ĠDisaat": 8254,
      "ĠLompat": 8255,
      "ĠKurnia": 8256,
      "Ġleher": 8257,
      "Ġlimpahi": 8258,
      "ĠIrdawat": 8259,
      "onnie": 8260,
      "ĠBertambah": 8261,
      "egoaan": 8262,
      "Ġtepoklah": 8263,
      "Ġworked": 8264,
      "Artis": 8265,
      "Usahlah": 8266,
      "dosaku": 8267,
      "egorized": 8268,
      "finiti": 8269,
      "hitamnya": 8270,
      "kekasihku": 8271,
      "satunya": 8272,
      "warni": 8273,
      "Ġkindly": 8274,
      "Ġmiliku": 8275,
      "Ġsanjungan": 8276,
      "Ġhasil": 8277,
      "Ġhayati": 8278,
      "ĠKuntuman": 8279,
      "Ġdianggap": 8280,
      "ĠTelor": 8281,
      "ĠTumbuh": 8282,
      "ĠTrisha": 8283,
      "ĠSoraya": 8284,
      "ĠSakura": 8285,
      "Ġagaknya": 8286,
      "Ġkuabadikan": 8287,
      "ĠDaiyan": 8288,
      "Ġcampur": 8289,
      "Ġjaganya": 8290,
      "Ġropana": 8291,
      "Ġkeindahannya": 8292,
      "Ġkedengaran": 8293,
      "Ġketakutan": 8294,
      "Ġperbalahan": 8295,
      "Ġpertanyaan": 8296,
      "ĠPengganti": 8297,
      "ĠLesung": 8298,
      "ĠJelingan": 8299,
      "ĠJibeng": 8300,
      "Ġmengsikui": 8301,
      "Ġmengetahui": 8302,
      "ĠIdaman": 8303,
      "Ġbersemuka": 8304,
      "ĠTerpancar": 8305,
      "ĠArjunaidi": 8306,
      "ĠDanielle": 8307,
      "Ġincomplete": 8308,
      "Ġpenamatnya": 8309,
      "ĠUncategorized": 8310,
      "Ġkenyataannya": 8311,
      "Ġlumpuh": 8312,
      "ĠKeinsafan": 8313,
      "Ġkesakitan": 8314,
      "ĠAlgojo": 8315,
      "Ġruyungnya": 8316,
      "Ġnanananana": 8317,
      "ĠKesucian": 8318,
      "Ġenjoy": 8319,
      "ĠMuffins": 8320,
      "Ġtelefon": 8321,
      "Ġstrugglin": 8322,
      "ĠIrdawaty": 8323,
      "AC": 8324,
      "An": 8325,
      "Apa": 8326,
      "Ana": 8327,
      "Aqasha": 8328,
      "Cinta": 8329,
      "Dik": 8330,
      "Fari": 8331,
      "Haz": 8332,
      "IA": 8333,
      "Kita": 8334,
      "Kata": 8335,
      "Kekasih": 8336,
      "MS": 8337,
      "Manakan": 8338,
      "Mimi": 8339,
      "RU": 8340,
      "Ronnie": 8341,
      "Sab": 8342,
      "Semu": 8343,
      "Salah": 8344,
      "Slee": 8345,
      "Tapi": 8346,
      "Tub": 8347,
      "Tag": 8348,
      "Tonggang": 8349,
      "ae": 8350,
      "aih": 8351,
      "aci": 8352,
      "abaikan": 8353,
      "bl": 8354,
      "bo": 8355,
      "blah": 8356,
      "bil": 8357,
      "beri": 8358,
      "bingan": 8359,
      "bohong": 8360,
      "can": 8361,
      "cau": 8362,
      "cut": 8363,
      "dh": 8364,
      "dikan": 8365,
      "dewa": 8366,
      "darkan": 8367,
      "dunya": 8368,
      "dillah": 8369,
      "derang": 8370,
      "ditanya": 8371,
      "etuk": 8372,
      "ecap": 8373,
      "eduli": 8374,
      "eburi": 8375,
      "ecial": 8376,
      "fa": 8377,
      "gU": 8378,
      "hy": 8379,
      "hem": 8380,
      "hai": 8381,
      "hulu": 8382,
      "hanku": 8383,
      "hianati": 8384,
      "hmm": 8385,
      "ias": 8386,
      "ior": 8387,
      "idam": 8388,
      "ixth": 8389,
      "jis": 8390,
      "jek": 8391,
      "jiwa": 8392,
      "jatuh": 8393,
      "ky": 8394,
      "kasa": 8395,
      "kisan": 8396,
      "lis": 8397,
      "lit": 8398,
      "lima": 8399,
      "low": 8400,
      "malam": 8401,
      "mnya": 8402,
      "oyang": 8403,
      "oakan": 8404,
      "olum": 8405,
      "pp": 8406,
      "pau": 8407,
      "pal": 8408,
      "panda": 8409,
      "pok": 8410,
      "ple": 8411,
      "puja": 8412,
      "pecial": 8413,
      "rin": 8414,
      "ras": 8415,
      "rul": 8416,
      "rni": 8417,
      "rindunya": 8418,
      "sin": 8419,
      "sanya": 8420,
      "sel": 8421,
      "sor": 8422,
      "sisa": 8423,
      "ster": 8424,
      "star": 8425,
      "sha": 8426,
      "sikit": 8427,
      "sanakan": 8428,
      "tkan": 8429,
      "teng": 8430,
      "tong": 8431,
      "utama": 8432,
      "vo": 8433,
      "ving": 8434,
      "wanya": 8435,
      "wita": 8436,
      "yn": 8437,
      "yanya": 8438,
      "yok": 8439,
      "yutan": 8440,
      "zanya": 8441,
      "zari": 8442,
      "zaman": 8443,
      "zahir": 8444,
      "Ġ#": 8445,
      "Ġq": 8446,
      "Ġari": 8447,
      "Ġanj": 8448,
      "Ġaka": 8449,
      "ank": 8450,
      "anana": 8451,
      "eran": 8452,
      "ercaya": 8453,
      "Ġkara": 8454,
      "Ġkasi": 8455,
      "Ġkalu": 8456,
      "Ġkomplikasi": 8457,
      "Ġkongsi": 8458,
      "layang": 8459,
      "laikan": 8460,
      "lasi": 8461,
      "tai": 8462,
      "taati": 8463,
      "ine": 8464,
      "iness": 8465,
      "angkan": 8466,
      "anggu": 8467,
      "enali": 8468,
      "enakan": 8469,
      "Ġmai": 8470,
      "Ġmac": 8471,
      "Ġmatang": 8472,
      "Ġmalah": 8473,
      "Ġmot": 8474,
      "Ġmic": 8475,
      "Ġmetafora": 8476,
      "Ġmurah": 8477,
      "Ġminyak": 8478,
      "Ġsta": 8479,
      "Ġsab": 8480,
      "Ġsawa": 8481,
      "Ġsarang": 8482,
      "Ġsarat": 8483,
      "Ġsampaikan": 8484,
      "Ġsanjung": 8485,
      "Ġsombong": 8486,
      "Ġsapu": 8487,
      "Ġspecial": 8488,
      "Ġdinya": 8489,
      "Ġdos": 8490,
      "Ġdewa": 8491,
      "Ġderai": 8492,
      "Ġdamat": 8493,
      "Ġduko": 8494,
      "Ġbung": 8495,
      "Ġbil": 8496,
      "Ġbaja": 8497,
      "Ġbok": 8498,
      "Ġbantu": 8499,
      "Ġbunuh": 8500,
      "Ġbagaimanakah": 8501,
      "Ġbandingkan": 8502,
      "Ġburuk": 8503,
      "kuasa": 8504,
      "kupu": 8505,
      "kungan": 8506,
      "ard": 8507,
      "aro": 8508,
      "arut": 8509,
      "arare": 8510,
      "tiku": 8511,
      "tipu": 8512,
      "tidur": 8513,
      "till": 8514,
      "Ġpil": 8515,
      "Ġpong": 8516,
      "Ġpeta": 8517,
      "Ġpac": 8518,
      "Ġpekas": 8519,
      "Ġpasai": 8520,
      "Ġpahat": 8521,
      "Ġpinggang": 8522,
      "Ġpanjat": 8523,
      "yair": 8524,
      "yadh": 8525,
      "muda": 8526,
      "musim": 8527,
      "musik": 8528,
      "Ġhemp": 8529,
      "Ġhalang": 8530,
      "Ġhmm": 8531,
      "Ġhuw": 8532,
      "Ġhikayat": 8533,
      "Ġhajat": 8534,
      "Ġhell": 8535,
      "Ġhabih": 8536,
      "ĠKas": 8537,
      "ĠKada": 8538,
      "ĠKela": 8539,
      "ĠKaw": 8540,
      "ĠKaka": 8541,
      "ĠKaca": 8542,
      "ĠKamarul": 8543,
      "ĠKRU": 8544,
      "asnya": 8545,
      "Ġtlah": 8546,
      "Ġtuh": 8547,
      "Ġtulang": 8548,
      "Ġtoleh": 8549,
      "Ġtump": 8550,
      "Ġtunjuk": 8551,
      "Ġtuhanku": 8552,
      "Ġtelapak": 8553,
      "ade": 8554,
      "ady": 8555,
      "und": 8556,
      "untuk": 8557,
      "undi": 8558,
      "undur": 8559,
      "unyikan": 8560,
      "undung": 8561,
      "ausi": 8562,
      "auzi": 8563,
      "akti": 8564,
      "aksi": 8565,
      "Ġdidak": 8566,
      "Ġditang": 8567,
      "Ġdimat": 8568,
      "Ġdiantara": 8569,
      "Ġditemu": 8570,
      "Ġdiganti": 8571,
      "Ġdigoda": 8572,
      "Ġdiwaktu": 8573,
      "Ġdifah": 8574,
      "Ġdiulangi": 8575,
      "Ġdidahan": 8576,
      "Ġdiubati": 8577,
      "Ġdiikut": 8578,
      "Ġdituju": 8579,
      "Ġdipijak": 8580,
      "Ġdirayu": 8581,
      "Ġdiburu": 8582,
      "ĠTim": 8583,
      "ĠTul": 8584,
      "ĠTaf": 8585,
      "ĠTepi": 8586,
      "ĠThey": 8587,
      "ĠTenung": 8588,
      "ĠTubuh": 8589,
      "ĠTutup": 8590,
      "ĠTengku": 8591,
      "ĠTentunya": 8592,
      "ĠTragedi": 8593,
      "ĠTegak": 8594,
      "Ġseusia": 8595,
      "Ġseting": 8596,
      "Ġsebahagian": 8597,
      "ĠAgung": 8598,
      "ĠAyat": 8599,
      "ĠSt": 8600,
      "ĠSik": 8601,
      "ĠSri": 8602,
      "ĠSum": 8603,
      "ĠSamp": 8604,
      "ĠSka": 8605,
      "ĠSoo": 8606,
      "ĠShari": 8607,
      "ĠSamb": 8608,
      "ĠSawah": 8609,
      "ĠSembunyi": 8610,
      "ĠSujud": 8611,
      "ĠSaksikan": 8612,
      "ĠSampainya": 8613,
      "ĠSMS": 8614,
      "atangi": 8615,
      "aturan": 8616,
      "Ġaa": 8617,
      "Ġajo": 8618,
      "Ġberas": 8619,
      "Ġberus": 8620,
      "Ġberaja": 8621,
      "Ġberka": 8622,
      "Ġberarah": 8623,
      "Ġbermat": 8624,
      "Ġberimu": 8625,
      "Ġberhati": 8626,
      "Ġberadu": 8627,
      "Ġberalas": 8628,
      "Ġberarak": 8629,
      "Ġberpijak": 8630,
      "Ġberfoya": 8631,
      "Ġberzaman": 8632,
      "ĠMam": 8633,
      "ĠMinta": 8634,
      "ĠMuka": 8635,
      "ĠMawar": 8636,
      "ĠMaju": 8637,
      "ĠMic": 8638,
      "ĠMulut": 8639,
      "ĠMuko": 8640,
      "ame": 8641,
      "amana": 8642,
      "amma": 8643,
      "amera": 8644,
      "amalkan": 8645,
      "amelia": 8646,
      "engerti": 8647,
      "Ġkud": 8648,
      "Ġkut": 8649,
      "Ġkubu": 8650,
      "Ġkuli": 8651,
      "Ġkutemu": 8652,
      "Ġkuber": 8653,
      "Ġkulafazkan": 8654,
      "Ġkubiarkan": 8655,
      "emar": 8656,
      "ĠBala": 8657,
      "ĠBanj": 8658,
      "ĠBul": 8659,
      "ĠBaja": 8660,
      "ĠBelah": 8661,
      "ĠBiru": 8662,
      "ĠBantu": 8663,
      "ĠBadan": 8664,
      "ĠBelas": 8665,
      "ĠBasah": 8666,
      "ĠBawah": 8667,
      "ĠBingk": 8668,
      "ĠBoss": 8669,
      "ĠBatinku": 8670,
      "ĠBeban": 8671,
      "ĠBesar": 8672,
      "ĠBagaimanakah": 8673,
      "alanya": 8674,
      "alur": 8675,
      "alangi": 8676,
      "alinan": 8677,
      "ĠDada": 8678,
      "ĠDina": 8679,
      "ĠDusta": 8680,
      "ĠDyn": 8681,
      "Ġcan": 8682,
      "Ġcemu": 8683,
      "Ġcac": 8684,
      "Ġchan": 8685,
      "Ġcengk": 8686,
      "Ġcoret": 8687,
      "Ġclass": 8688,
      "Ġcheck": 8689,
      "Ġceburi": 8690,
      "intah": 8691,
      "intar": 8692,
      "Ġji": 8693,
      "Ġjar": 8694,
      "Ġjati": 8695,
      "Ġjamu": 8696,
      "Ġjunj": 8697,
      "Ġjahat": 8698,
      "Ġjambu": 8699,
      "Ġjanjikan": 8700,
      "Ġjust": 8701,
      "Ġjalinan": 8702,
      "apur": 8703,
      "Ġtamp": 8704,
      "Ġtasik": 8705,
      "Ġtaburi": 8706,
      "Ġterdu": 8707,
      "Ġterikat": 8708,
      "Ġterduga": 8709,
      "Ġterapung": 8710,
      "Ġterdulu": 8711,
      "Ġterkulai": 8712,
      "Ġterasing": 8713,
      "Ġterpilih": 8714,
      "atilah": 8715,
      "luas": 8716,
      "Ġro": 8717,
      "Ġrak": 8718,
      "Ġrat": 8719,
      "Ġram": 8720,
      "Ġring": 8721,
      "Ġrata": 8722,
      "Ġrara": 8723,
      "Ġrajuk": 8724,
      "Ġrubah": 8725,
      "Ġrawan": 8726,
      "Ġramping": 8727,
      "Ġrempuhi": 8728,
      "Ġringgi": 8729,
      "Ġracuni": 8730,
      "Ġraso": 8731,
      "Ġratapi": 8732,
      "Ġrawak": 8733,
      "Ġranting": 8734,
      "Ġrujuk": 8735,
      "Ġrindunya": 8736,
      "Ġrantauan": 8737,
      "Ġrumpun": 8738,
      "Ġriwayat": 8739,
      "Ġmenantu": 8740,
      "Ġmendamba": 8741,
      "Ġmenikmati": 8742,
      "Ġmenebal": 8743,
      "issa": 8744,
      "Ġkesa": 8745,
      "Ġkebir": 8746,
      "Ġketemu": 8747,
      "Ġkecintaan": 8748,
      "Ġkeinginan": 8749,
      "Ġkebahagian": 8750,
      "Ġketua": 8751,
      "Ġkeinsan": 8752,
      "Ġketandusan": 8753,
      "Ġlaw": 8754,
      "Ġlaung": 8755,
      "Ġlaki": 8756,
      "Ġlarat": 8757,
      "Ġlayar": 8758,
      "ĠHe": 8759,
      "ĠHina": 8760,
      "ĠHenti": 8761,
      "ĠHantu": 8762,
      "ĠHalaman": 8763,
      "ĠHebat": 8764,
      "ĠHukum": 8765,
      "ĠHmm": 8766,
      "ĠHaq": 8767,
      "ĠHadapi": 8768,
      "ĠHormat": 8769,
      "ĠHaus": 8770,
      "ĠHadiah": 8771,
      "ĠHandy": 8772,
      "ĠHimpun": 8773,
      "ĠHadzir": 8774,
      "ĠHadiahkan": 8775,
      "Ġakur": 8776,
      "Ġakukan": 8777,
      "gaan": 8778,
      "ingkan": 8779,
      "ingati": 8780,
      "ariku": 8781,
      "arique": 8782,
      "gus": 8783,
      "gutan": 8784,
      "Ġcintakan": 8785,
      "ĠSepa": 8786,
      "ĠSebu": 8787,
      "ĠSeikhlas": 8788,
      "ĠSebahagian": 8789,
      "ĠSetenang": 8790,
      "Ġperb": 8791,
      "Ġperti": 8792,
      "Ġpercinta": 8793,
      "Ġperawan": 8794,
      "Ġperkata": 8795,
      "Ġperangkap": 8796,
      "Ġtakdok": 8797,
      "ikata": 8798,
      "tudi": 8799,
      "tumpah": 8800,
      "asihat": 8801,
      "ril": 8802,
      "riend": 8803,
      "Ġnah": 8804,
      "Ġnaya": 8805,
      "Ġnawa": 8806,
      "Ġnganti": 8807,
      "Ġnex": 8808,
      "Ġnilai": 8809,
      "ĠPek": 8810,
      "ĠPoi": 8811,
      "ĠPadanya": 8812,
      "ĠPalik": 8813,
      "ĠPay": 8814,
      "ĠPot": 8815,
      "ĠParis": 8816,
      "ĠPuji": 8817,
      "ĠPurnama": 8818,
      "ĠPic": 8819,
      "ĠPatut": 8820,
      "ĠPinggir": 8821,
      "ĠPeduli": 8822,
      "alamkan": 8823,
      "ĠLy": 8824,
      "ĠLah": 8825,
      "ĠLapan": 8826,
      "ĠLong": 8827,
      "ĠLima": 8828,
      "ĠLup": 8829,
      "ĠLuna": 8830,
      "ĠLarilah": 8831,
      "ĠLinangan": 8832,
      "ĠLaks": 8833,
      "imkah": 8834,
      "imbang": 8835,
      "ĠJasa": 8836,
      "ĠJakar": 8837,
      "ĠJef": 8838,
      "ĠJimmy": 8839,
      "usun": 8840,
      "usap": 8841,
      "Ġof": 8842,
      "Ġom": 8843,
      "ĠRama": 8844,
      "ĠRakan": 8845,
      "ĠRasanya": 8846,
      "ĠRemuk": 8847,
      "ĠRapper": 8848,
      "ĠRenungi": 8849,
      "ĠRarare": 8850,
      "eleng": 8851,
      "elombang": 8852,
      "Ġkitalah": 8853,
      "adili": 8854,
      "ĠCo": 8855,
      "ĠCepat": 8856,
      "ĠCalar": 8857,
      "ĠCamelia": 8858,
      "Ġmengamp": 8859,
      "Ġmengira": 8860,
      "Ġmengump": 8861,
      "Ġmenggang": 8862,
      "Ġmengapakah": 8863,
      "Ġmengulit": 8864,
      "Ġmengimbas": 8865,
      "Ġmengemis": 8866,
      "Ġmengeluh": 8867,
      "Ġmenginsa": 8868,
      "Ġmengasari": 8869,
      "Ġmengkagu": 8870,
      "Ġmengasyikkan": 8871,
      "Ġmengabaikan": 8872,
      "ilsu": 8873,
      "Ġleng": 8874,
      "Ġlengan": 8875,
      "Ġlet": 8876,
      "Ġlancar": 8877,
      "Ġlembaran": 8878,
      "Ġlilin": 8879,
      "Ġtiang": 8880,
      "Ġtiku": 8881,
      "Ġtitah": 8882,
      "Ġtimb": 8883,
      "Ġtitik": 8884,
      "uhraya": 8885,
      "ĠIt": 8886,
      "ĠIkan": 8887,
      "ĠIwan": 8888,
      "ĠIdola": 8889,
      "ĠAkuinya": 8890,
      "Ġbersungguh": 8891,
      "Ġbersepi": 8892,
      "Ġbersumpah": 8893,
      "Ġbersandarkan": 8894,
      "Ġbersembunyikan": 8895,
      "Ġbersahaja": 8896,
      "ĠYaw": 8897,
      "ĠBerm": 8898,
      "ĠBererti": 8899,
      "ĠBertahan": 8900,
      "ĠBerirama": 8901,
      "ĠBerde": 8902,
      "ĠBerjuta": 8903,
      "ĠBertutu": 8904,
      "ĠBermaaf": 8905,
      "ĠBerharap": 8906,
      "ĠBermusim": 8907,
      "ĠDiam": 8908,
      "ĠDicinta": 8909,
      "ĠDidi": 8910,
      "ĠDicipta": 8911,
      "ĠDijual": 8912,
      "Ġwey": 8913,
      "Ġwill": 8914,
      "ĠTakbir": 8915,
      "esi": 8916,
      "esap": 8917,
      "essa": 8918,
      "esarkan": 8919,
      "ĠBiasa": 8920,
      "bai": 8921,
      "baca": 8922,
      "ĠLawak": 8923,
      "ĠOnn": 8924,
      "ĠOkay": 8925,
      "ĠTerc": 8926,
      "ĠTern": 8927,
      "ĠTerbu": 8928,
      "ĠTerkulai": 8929,
      "ĠTergari": 8930,
      "umbang": 8931,
      "elajah": 8932,
      "ĠNaja": 8933,
      "ĠNom": 8934,
      "ĠNok": 8935,
      "ĠNet": 8936,
      "ĠNampak": 8937,
      "ĠNag": 8938,
      "ĠNuri": 8939,
      "ĠNilai": 8940,
      "ĠNie": 8941,
      "ĠNation": 8942,
      "ekah": 8943,
      "ekian": 8944,
      "ekalkan": 8945,
      "Ġgela": 8946,
      "Ġgalau": 8947,
      "Ġged": 8948,
      "Ġget": 8949,
      "Ġgha": 8950,
      "Ġgelas": 8951,
      "Ġgot": 8952,
      "Ġgelak": 8953,
      "Ġgraviti": 8954,
      "Ġgambarkan": 8955,
      "Ġgarisan": 8956,
      "Ġgraff": 8957,
      "ity": 8958,
      "itter": 8959,
      "ĠMenyanyi": 8960,
      "ĠMenawan": 8961,
      "ĠMenunduk": 8962,
      "ĠMenutup": 8963,
      "ĠMenikam": 8964,
      "ĠMenutupi": 8965,
      "budak": 8966,
      "bullah": 8967,
      "antisnya": 8968,
      "Ġbuai": 8969,
      "Ġbuleh": 8970,
      "Ġbulat": 8971,
      "laman": 8972,
      "lamkan": 8973,
      "atukan": 8974,
      "Ġtegh": 8975,
      "Ġtegak": 8976,
      "aian": 8977,
      "ĠWang": 8978,
      "ĠWak": 8979,
      "ĠWoo": 8980,
      "ĠWani": 8981,
      "ĠWarn": 8982,
      "ĠWaris": 8983,
      "ĠWaji": 8984,
      "ĠWhen": 8985,
      "Ġsemuo": 8986,
      "Ġsemusim": 8987,
      "ĠCintailah": 8988,
      "anjaran": 8989,
      "Ġsulu": 8990,
      "Ġsuri": 8991,
      "Ġsulam": 8992,
      "Ġsubuh": 8993,
      "Ġsupers": 8994,
      "Ġsulit": 8995,
      "ĠUs": 8996,
      "ĠUlang": 8997,
      "ĠUlar": 8998,
      "ĠUghang": 8999,
      "Ġmerela": 9000,
      "Ġmerac": 9001,
      "Ġmerintang": 9002,
      "Ġmeruntuh": 9003,
      "Ġmertua": 9004,
      "Ġmerawat": 9005,
      "Ġmerangkak": 9006,
      "Ġmeredah": 9007,
      "ĠTitik": 9008,
      "uling": 9009,
      "ulung": 9010,
      "ulik": 9011,
      "rain": 9012,
      "galung": 9013,
      "ĠAryan": 9014,
      "ĠArca": 9015,
      "Ġrasaatkan": 9016,
      "Ġikan": 9017,
      "Ġianya": 9018,
      "Ġilusi": 9019,
      "ĠMenghan": 9020,
      "ĠMengha": 9021,
      "ĠMenganggung": 9022,
      "ĠMengucap": 9023,
      "ĠMengimbas": 9024,
      "ĠMengundi": 9025,
      "ĠMengingati": 9026,
      "ĠMenggalung": 9027,
      "agis": 9028,
      "ĠGeng": 9029,
      "ĠGema": 9030,
      "ĠGetaran": 9031,
      "ĠGamma": 9032,
      "Ġmembuka": 9033,
      "Ġmembebas": 9034,
      "Ġmembuta": 9035,
      "Ġmembalut": 9036,
[...]
